{
  "version": "1.0",
  "truncation": null,
  "padding": {
    "strategy": "BatchLongest",
    "direction": "Right",
    "pad_to_multiple_of": null,
    "pad_id": 3,
    "pad_type_id": 0,
    "pad_token": "[PAD]"
  },
  "added_tokens": [
    {
      "id": 0,
      "content": "[UNK]",
      "single_word": false,
      "lstrip": false,
      "rstrip": false,
      "normalized": false,
      "special": true
    },
    {
      "id": 1,
      "content": "[CLS]",
      "single_word": false,
      "lstrip": false,
      "rstrip": false,
      "normalized": false,
      "special": true
    },
    {
      "id": 2,
      "content": "[SEP]",
      "single_word": false,
      "lstrip": false,
      "rstrip": false,
      "normalized": false,
      "special": true
    },
    {
      "id": 3,
      "content": "[PAD]",
      "single_word": false,
      "lstrip": false,
      "rstrip": false,
      "normalized": false,
      "special": true
    },
    {
      "id": 4,
      "content": "[MASK]",
      "single_word": false,
      "lstrip": false,
      "rstrip": false,
      "normalized": false,
      "special": true
    }
  ],
  "normalizer": {
    "type": "Sequence",
    "normalizers": [
      {
        "type": "StripAccents"
      }
    ]
  },
  "pre_tokenizer": {
    "type": "Sequence",
    "pretokenizers": [
      {
        "type": "Whitespace"
      }
    ]
  },
  "post_processor": null,
  "decoder": null,
  "model": {
    "type": "BPE",
    "dropout": null,
    "unk_token": "[UNK]",
    "continuing_subword_prefix": null,
    "end_of_word_suffix": null,
    "fuse_unk": false,
    "byte_fallback": false,
    "vocab": {
      "[UNK]": 0,
      "[CLS]": 1,
      "[SEP]": 2,
      "[PAD]": 3,
      "[MASK]": 4,
      "!": 5,
      "#": 6,
      "$": 7,
      "%": 8,
      "&": 9,
      "'": 10,
      "+": 11,
      ",": 12,
      "-": 13,
      ".": 14,
      "/": 15,
      "0": 16,
      "1": 17,
      "2": 18,
      "3": 19,
      "4": 20,
      "5": 21,
      "6": 22,
      "7": 23,
      "8": 24,
      "9": 25,
      ":": 26,
      ";": 27,
      "=": 28,
      "?": 29,
      "A": 30,
      "B": 31,
      "C": 32,
      "D": 33,
      "E": 34,
      "F": 35,
      "G": 36,
      "H": 37,
      "I": 38,
      "J": 39,
      "K": 40,
      "L": 41,
      "M": 42,
      "N": 43,
      "O": 44,
      "P": 45,
      "Q": 46,
      "R": 47,
      "S": 48,
      "T": 49,
      "U": 50,
      "V": 51,
      "W": 52,
      "X": 53,
      "Y": 54,
      "Z": 55,
      "_": 56,
      "`": 57,
      "a": 58,
      "b": 59,
      "c": 60,
      "d": 61,
      "e": 62,
      "f": 63,
      "g": 64,
      "h": 65,
      "i": 66,
      "j": 67,
      "k": 68,
      "l": 69,
      "m": 70,
      "n": 71,
      "o": 72,
      "p": 73,
      "q": 74,
      "r": 75,
      "s": 76,
      "t": 77,
      "u": 78,
      "v": 79,
      "w": 80,
      "x": 81,
      "y": 82,
      "z": 83,
      "he": 84,
      "at": 85,
      "Wh": 86,
      "the": 87,
      "in": 88,
      "What": 89,
      "an": 90,
      "is": 91,
      "er": 92,
      "re": 93,
      "on": 94,
      "or": 95,
      "es": 96,
      "ar": 97,
      "of": 98,
      "as": 99,
      "en": 100,
      "al": 101,
      "ed": 102,
      "ou": 103,
      "ow": 104,
      "st": 105,
      "it": 106,
      "ic": 107,
      "am": 108,
      "le": 109,
      "om": 110,
      "do": 111,
      "id": 112,
      "to": 113,
      "ing": 114,
      "How": 115,
      "and": 116,
      "was": 117,
      "ol": 118,
      "ac": 119,
      "il": 120,
      "th": 121,
      "ent": 122,
      "Who": 123,
      "for": 124,
      "ion": 125,
      "are": 126,
      "et": 127,
      "el": 128,
      "ir": 129,
      "man": 130,
      "ad": 131,
      "ro": 132,
      "ame": 133,
      "ch": 134,
      "ig": 135,
      "Whe": 136,
      "ter": 137,
      "ay": 138,
      "all": 139,
      "did": 140,
      "se": 141,
      "does": 142,
      "''": 143,
      "``": 144,
      "tr": 145,
      "ve": 146,
      "oun": 147,
      "est": 148,
      "ur": 149,
      "com": 150,
      "many": 151,
      "be": 152,
      "im": 153,
      "op": 154,
      "us": 155,
      "ver": 156,
      "mo": 157,
      "ag": 158,
      "ap": 159,
      "ear": 160,
      "Where": 161,
      "ation": 162,
      "res": 163,
      "te": 164,
      "ld": 165,
      "wh": 166,
      "di": 167,
      "oo": 168,
      "ul": 169,
      "ate": 170,
      "wor": 171,
      "ce": 172,
      "name": 173,
      "pl": 174,
      "ak": 175,
      "19": 176,
      "un": 177,
      "ab": 178,
      "ct": 179,
      "you": 180,
      "pe": 181,
      "li": 182,
      "um": 183,
      "ain": 184,
      "fir": 185,
      "ity": 186,
      "de": 187,
      "fr": 188,
      "can": 189,
      "first": 190,
      "con": 191,
      "ers": 192,
      "ich": 193,
      "coun": 194,
      "oc": 195,
      "ly": 196,
      "ist": 197,
      "ind": 198,
      "sp": 199,
      "me": 200,
      "fe": 201,
      "mer": 202,
      "In": 203,
      "art": 204,
      "sh": 205,
      "The": 206,
      "ong": 207,
      "ot": 208,
      "ri": 209,
      "ut": 210,
      "countr": 211,
      "ha": 212,
      "ast": 213,
      "ine": 214,
      "we": 215,
      "one": 216,
      "from": 217,
      "os": 218,
      "by": 219,
      "ill": 220,
      "pro": 221,
      "When": 222,
      "ia": 223,
      "ies": 224,
      "ie": 225,
      "ith": 226,
      "qu": 227,
      "most": 228,
      "bo": 229,
      "igh": 230,
      "col": 231,
      "per": 232,
      "call": 233,
      "ne": 234,
      "that": 235,
      "act": 236,
      "own": 237,
      "ber": 238,
      "co": 239,
      "ian": 240,
      "ard": 241,
      "what": 242,
      "ge": 243,
      "age": 244,
      "Amer": 245,
      "with": 246,
      "country": 247,
      "Americ": 248,
      "cl": 249,
      "Ch": 250,
      "world": 251,
      "ake": 252,
      "comp": 253,
      "ant": 254,
      "gr": 255,
      "our": 256,
      "uc": 257,
      "ex": 258,
      "year": 259,
      "have": 260,
      "out": 261,
      "St": 262,
      "aw": 263,
      "has": 264,
      "ish": 265,
      "ident": 266,
      "ated": 267,
      "ack": 268,
      "ell": 269,
      "city": 270,
      "play": 271,
      "up": 272,
      "ure": 273,
      "ood": 274,
      "ere": 275,
      "ort": 276,
      "ess": 277,
      "bl": 278,
      "land": 279,
      "ra": 280,
      "Which": 281,
      "ass": 282,
      "resident": 283,
      "em": 284,
      "Why": 285,
      "ight": 286,
      "lar": 287,
      "ick": 288,
      "ome": 289,
      "mean": 290,
      "get": 291,
      "her": 292,
      "gest": 293,
      "ment": 294,
      "vel": 295,
      "there": 296,
      "ace": 297,
      "ound": 298,
      "end": 299,
      "old": 300,
      "ff": 301,
      "long": 302,
      "ous": 303,
      "ice": 304,
      "called": 305,
      "ke": 306,
      "ade": 307,
      "ive": 308,
      "mon": 309,
      "Name": 310,
      "tw": 311,
      "state": 312,
      "ople": 313,
      "American": 314,
      "ite": 315,
      "pr": 316,
      "were": 317,
      "its": 318,
      "ical": 319,
      "igin": 320,
      "people": 321,
      "cre": 322,
      "iv": 323,
      "ther": 324,
      "origin": 325,
      "ball": 326,
      "ip": 327,
      "ty": 328,
      "ren": 329,
      "ary": 330,
      "find": 331,
      "his": 332,
      "og": 333,
      "vent": 334,
      "br": 335,
      "car": 336,
      "if": 337,
      "mu": 338,
      "po": 339,
      "au": 340,
      "iz": 341,
      "come": 342,
      "av": 343,
      "gh": 344,
      "nam": 345,
      "ress": 346,
      "der": 347,
      "tain": 348,
      "ase": 349,
      "ook": 350,
      "kn": 351,
      "ph": 352,
      "hen": 353,
      "ans": 354,
      "Ne": 355,
      "bet": 356,
      "ang": 357,
      "ach": 358,
      "fl": 359,
      "ree": 360,
      "largest": 361,
      "go": 362,
      "made": 363,
      "word": 364,
      "Jo": 365,
      "bu": 366,
      "fam": 367,
      "ng": 368,
      "form": 369,
      "ial": 370,
      "pop": 371,
      "used": 372,
      "two": 373,
      "ore": 374,
      "ide": 375,
      "ates": 376,
      "color": 377,
      "fear": 378,
      "any": 379,
      "ime": 380,
      "much": 381,
      "ail": 382,
      "ep": 383,
      "son": 384,
      "ub": 385,
      "dis": 386,
      "ob": 387,
      "ould": 388,
      "let": 389,
      "ween": 390,
      "between": 391,
      "ry": 392,
      "ue": 393,
      "ence": 394,
      "Un": 395,
      "che": 396,
      "sy": 397,
      "orn": 398,
      "enn": 399,
      "prod": 400,
      "ele": 401,
      "rit": 402,
      "str": 403,
      "popul": 404,
      "af": 405,
      "air": 406,
      "mar": 407,
      "no": 408,
      "cent": 409,
      "vie": 410,
      "invent": 411,
      "app": 412,
      "Mar": 413,
      "hn": 414,
      "les": 415,
      "my": 416,
      "iss": 417,
      "ild": 418,
      "tern": 419,
      "who": 420,
      "dr": 421,
      "dy": 422,
      "fil": 423,
      "ran": 424,
      "when": 425,
      "oll": 426,
      "ink": 427,
      "ock": 428,
      "ffer": 429,
      "War": 430,
      "part": 431,
      "ts": 432,
      "tle": 433,
      "way": 434,
      "red": 435,
      "stand": 436,
      "vers": 437,
      "known": 438,
      "John": 439,
      "Al": 440,
      "ins": 441,
      "day": 442,
      "ile": 443,
      "ory": 444,
      "ational": 445,
      "differ": 446,
      "film": 447,
      "io": 448,
      "kind": 449,
      "president": 450,
      "ser": 451,
      "New": 452,
      "ble": 453,
      "ven": 454,
      "ater": 455,
      "star": 456,
      "famous": 457,
      "Sp": 458,
      "TV": 459,
      "cor": 460,
      "Ar": 461,
      "Eng": 462,
      "President": 463,
      "book": 464,
      "als": 465,
      "char": 466,
      "ters": 467,
      "bir": 468,
      "best": 469,
      "ath": 470,
      "int": 471,
      "ens": 472,
      "ough": 473,
      "company": 474,
      "fi": 475,
      "make": 476,
      "outh": 477,
      "movie": 478,
      "akes": 479,
      "about": 480,
      "invented": 481,
      "18": 482,
      "Wor": 483,
      "aid": 484,
      "bur": 485,
      "lo": 486,
      "ud": 487,
      "cur": 488,
      "cap": 489,
      "num": 490,
      "some": 491,
      "ict": 492,
      "term": 493,
      "which": 494,
      "World": 495,
      "game": 496,
      "ix": 497,
      "take": 498,
      "ond": 499,
      "ition": 500,
      "ower": 501,
      "ign": 502,
      "ho": 503,
      "ors": 504,
      "ale": 505,
      "your": 506,
      "ck": 507,
      "port": 508,
      "use": 509,
      "vi": 510,
      "war": 511,
      "hest": 512,
      "into": 513,
      "reat": 514,
      "off": 515,
      "ics": 516,
      "work": 517,
      "live": 518,
      "charac": 519,
      "not": 520,
      "sing": 521,
      "ting": 522,
      "oman": 523,
      "rote": 524,
      "An": 525,
      "time": 526,
      "ust": 527,
      "anim": 528,
      "only": 529,
      "ited": 530,
      "196": 531,
      "ction": 532,
      "born": 533,
      "ca": 534,
      "cy": 535,
      "lish": 536,
      "ool": 537,
      "pt": 538,
      "ss": 539,
      "wrote": 540,
      "ature": 541,
      "inn": 542,
      "ask": 543,
      "ital": 544,
      "ley": 545,
      "cond": 546,
      "sport": 547,
      "bre": 548,
      "base": 549,
      "cr": 550,
      "ft": 551,
      "line": 552,
      "ma": 553,
      "min": 554,
      "ok": 555,
      "ton": 556,
      "ance": 557,
      "eral": 558,
      "new": 559,
      "00": 560,
      "Se": 561,
      "Sh": 562,
      "od": 563,
      "their": 564,
      "ese": 565,
      "eter": 566,
      "team": 567,
      "198": 568,
      "America": 569,
      "produ": 570,
      "aver": 571,
      "vis": 572,
      "top": 573,
      "Th": 574,
      "hy": 575,
      "hig": 576,
      "lang": 577,
      "por": 578,
      "ved": 579,
      "won": 580,
      "ise": 581,
      "oup": 582,
      "amp": 583,
      "ountain": 584,
      "imes": 585,
      "show": 586,
      "named": 587,
      "baseball": 588,
      "Is": 589,
      "Le": 590,
      "NN": 591,
      "Nor": 592,
      "ci": 593,
      "last": 594,
      "spe": 595,
      "lead": 596,
      "dog": 597,
      "Indi": 598,
      "English": 599,
      "highest": 600,
      "Col": 601,
      "De": 602,
      "South": 603,
      "des": 604,
      "ful": 605,
      "gen": 606,
      "kill": 607,
      "law": 608,
      "mil": 609,
      "other": 610,
      "pre": 611,
      "sch": 612,
      "uman": 613,
      "ures": 614,
      "ark": 615,
      "oft": 616,
      "ali": 617,
      "ames": 618,
      "common": 619,
      "199": 620,
      "cont": 621,
      "fect": 622,
      "countries": 623,
      "United": 624,
      "character": 625,
      "Be": 626,
      "Car": 627,
      "ds": 628,
      "found": 629,
      "had": 630,
      "home": 631,
      "lin": 632,
      "loc": 633,
      "ug": 634,
      "water": 635,
      "ally": 636,
      "uss": 637,
      "ations": 638,
      "die": 639,
      "erson": 640,
      "uck": 641,
      "population": 642,
      "after": 643,
      "difference": 644,
      "number": 645,
      "Br": 646,
      "Ste": 647,
      "US": 648,
      "Wil": 649,
      "cul": 650,
      "four": 651,
      "gin": 652,
      "oy": 653,
      "pos": 654,
      "song": 655,
      "ouse": 656,
      "body": 657,
      "Chr": 658,
      "novel": 659,
      "Fran": 660,
      "aut": 661,
      "over": 662,
      "so": 663,
      "tit": 664,
      "rect": 665,
      "ste": 666,
      "ings": 667,
      "add": 668,
      "died": 669,
      "Intern": 670,
      "birth": 671,
      "capital": 672,
      "langu": 673,
      "cess": 674,
      "foll": 675,
      "hist": 676,
      "mus": 677,
      "su": 678,
      "say": 679,
      "ina": 680,
      "org": 681,
      "ities": 682,
      "average": 683,
      "follow": 684,
      "II": 685,
      "big": 686,
      "bus": 687,
      "sur": 688,
      "tur": 689,
      "uro": 690,
      "ican": 691,
      "thr": 692,
      "become": 693,
      "197": 694,
      "space": 695,
      "colle": 696,
      "States": 697,
      "raft": 698,
      "formation": 699,
      "school": 700,
      "Can": 701,
      "Yor": 702,
      "food": 703,
      "ire": 704,
      "med": 705,
      "nia": 706,
      "pain": 707,
      "sw": 708,
      "said": 709,
      "head": 710,
      "ator": 711,
      "information": 712,
      "three": 713,
      "bec": 714,
      "plant": 715,
      "oney": 716,
      "group": 717,
      "played": 718,
      "York": 719,
      "Com": 720,
      "Russ": 721,
      "az": 722,
      "ivers": 723,
      "mp": 724,
      "mountain": 725,
      "uter": 726,
      "vol": 727,
      "att": 728,
      "ism": 729,
      "ash": 730,
      "owl": 731,
      "thing": 732,
      "ions": 733,
      "uring": 734,
      "been": 735,
      "aper": 736,
      "195": 737,
      "actor": 738,
      "Char": 739,
      "drink": 740,
      "Day": 741,
      "ah": 742,
      "ax": 743,
      "ave": 744,
      "ey": 745,
      "ever": 746,
      "fast": 747,
      "hand": 748,
      "ied": 749,
      "iver": 750,
      "ible": 751,
      "je": 752,
      "pol": 753,
      "person": 754,
      "run": 755,
      "win": 756,
      "woman": 757,
      "ather": 758,
      "they": 759,
      "than": 760,
      "eld": 761,
      "child": 762,
      "tele": 763,
      "oot": 764,
      "able": 765,
      "ship": 766,
      "boy": 767,
      "actress": 768,
      "produc": 769,
      "North": 770,
      "located": 771,
      "Bl": 772,
      "Con": 773,
      "Cali": 774,
      "Ed": 775,
      "Ger": 776,
      "Jap": 777,
      "Mon": 778,
      "aim": 779,
      "cher": 780,
      "how": 781,
      "iet": 782,
      "jor": 783,
      "lit": 784,
      "mber": 785,
      "ox": 786,
      "power": 787,
      "sn": 788,
      "would": 789,
      "writ": 790,
      "atch": 791,
      "ann": 792,
      "alk": 793,
      "start": 794,
      "olog": 795,
      "fornia": 796,
      "second": 797,
      "ury": 798,
      "more": 799,
      "contain": 800,
      "should": 801,
      "longest": 802,
      "names": 803,
      "popular": 804,
      "urope": 805,
      "California": 806,
      "Japan": 807,
      "Brit": 808,
      "Europe": 809,
      "Ge": 810,
      "date": 811,
      "during": 812,
      "eg": 813,
      "each": 814,
      "fore": 815,
      "human": 816,
      "led": 817,
      "male": 818,
      "will": 819,
      "attle": 820,
      "rel": 821,
      "ons": 822,
      "edy": 823,
      "ents": 824,
      "tra": 825,
      "river": 826,
      "que": 827,
      "cost": 828,
      "cover": 829,
      "claim": 830,
      "years": 831,
      "black": 832,
      "killed": 833,
      "Christ": 834,
      "Afr": 835,
      "Jack": 836,
      "Miss": 837,
      "Pr": 838,
      "far": 839,
      "happ": 840,
      "ler": 841,
      "men": 842,
      "mag": 843,
      "money": 844,
      "nor": 845,
      "sol": 846,
      "sub": 847,
      "ze": 848,
      "ony": 849,
      "orse": 850,
      "ica": 851,
      "ayed": 852,
      "uses": 853,
      "under": 854,
      "liv": 855,
      "like": 856,
      "rip": 857,
      "board": 858,
      "computer": 859,
      "grap": 860,
      "key": 861,
      "build": 862,
      "major": 863,
      "portr": 864,
      "Willi": 865,
      "iversity": 866,
      "Ber": 867,
      "Har": 868,
      "King": 869,
      "Mo": 870,
      "but": 871,
      "card": 872,
      "eat": 873,
      "foot": 874,
      "good": 875,
      "ium": 876,
      "mill": 877,
      "nick": 878,
      "soft": 879,
      "wr": 880,
      "anc": 881,
      "ank": 882,
      "ones": 883,
      "arth": 884,
      "arch": 885,
      "leg": 886,
      "andy": 887,
      "ross": 888,
      "direct": 889,
      "plan": 890,
      "place": 891,
      "194": 892,
      "abbre": 893,
      "web": 894,
      "lands": 895,
      "mark": 896,
      "animal": 897,
      "product": 898,
      "language": 899,
      "abbrevi": 900,
      "Ang": 901,
      "Fren": 902,
      "Re": 903,
      "West": 904,
      "bor": 905,
      "bro": 906,
      "equ": 907,
      "fin": 908,
      "ost": 909,
      "rate": 910,
      "times": 911,
      "ister": 912,
      "olf": 913,
      "comm": 914,
      "tem": 915,
      "ific": 916,
      "appear": 917,
      "ought": 918,
      "address": 919,
      "history": 920,
      "through": 921,
      "Canad": 922,
      "Russian": 923,
      "portrayed": 924,
      "French": 925,
      "16": 926,
      "Gr": 927,
      "Oly": 928,
      "Park": 929,
      "She": 930,
      "ik": 931,
      "ll": 932,
      "makes": 933,
      "pres": 934,
      "sk": 935,
      "sal": 936,
      "tall": 937,
      "ual": 938,
      "ubl": 939,
      "atures": 940,
      "eng": 941,
      "ared": 942,
      "ets": 943,
      "oper": 944,
      "ull": 945,
      "type": 946,
      "different": 947,
      "field": 948,
      "leader": 949,
      "miles": 950,
      "Internet": 951,
      "organ": 952,
      "turn": 953,
      "college": 954,
      "William": 955,
      "Olymp": 956,
      "It": 957,
      "Man": 958,
      "National": 959,
      "band": 960,
      "cal": 961,
      "fact": 962,
      "gy": 963,
      "hit": 964,
      "mb": 965,
      "pur": 966,
      "put": 967,
      "rad": 968,
      "sil": 969,
      "set": 970,
      "sign": 971,
      "ted": 972,
      "here": 973,
      "ats": 974,
      "ines": 975,
      "rest": 976,
      "stem": 977,
      "ages": 978,
      "193": 979,
      "ung": 980,
      "meaning": 981,
      "typ": 982,
      "ize": 983,
      "dise": 984,
      "chem": 985,
      "title": 986,
      "Bro": 987,
      "Dick": 988,
      "Kenn": 989,
      "Sc": 990,
      "Su": 991,
      "San": 992,
      "aur": 993,
      "bab": 994,
      "back": 995,
      "cer": 996,
      "five": 997,
      "gl": 998,
      "ib": 999,
      "mas": 1000,
      "ner": 1001,
      "sl": 1002,
      "sell": 1003,
      "ten": 1004,
      "ude": 1005,
      "iness": 1006,
      "ana": 1007,
      "real": 1008,
      "ider": 1009,
      "idge": 1010,
      "ilt": 1011,
      "irl": 1012,
      "life": 1013,
      "cons": 1014,
      "month": 1015,
      "created": 1016,
      "ives": 1017,
      "colors": 1018,
      "system": 1019,
      "curren": 1020,
      "causes": 1021,
      "spec": 1022,
      "business": 1023,
      "became": 1024,
      "Charles": 1025,
      "contains": 1026,
      "happen": 1027,
      "write": 1028,
      "abbreviation": 1029,
      "Kennedy": 1030,
      "Ab": 1031,
      "Craft": 1032,
      "Mc": 1033,
      "Randy": 1034,
      "fly": 1035,
      "father": 1036,
      "gn": 1037,
      "ham": 1038,
      "high": 1039,
      "ife": 1040,
      "light": 1041,
      "main": 1042,
      "ole": 1043,
      "ps": 1044,
      "par": 1045,
      "sun": 1046,
      "ustr": 1047,
      "ative": 1048,
      "ster": 1049,
      "lear": 1050,
      "ington": 1051,
      "ily": 1052,
      "see": 1053,
      "trans": 1054,
      "ount": 1055,
      "begin": 1056,
      "ope": 1057,
      "ush": 1058,
      "ague": 1059,
      "earth": 1060,
      "feet": 1061,
      "percent": 1062,
      "assin": 1063,
      "assassin": 1064,
      "ipp": 1065,
      "point": 1066,
      "augh": 1067,
      "built": 1068,
      "vision": 1069,
      "contin": 1070,
      "British": 1071,
      "Geor": 1072,
      "Angel": 1073,
      "chemical": 1074,
      "12": 1075,
      "15": 1076,
      "As": 1077,
      "Earth": 1078,
      "Jan": 1079,
      "On": 1080,
      "ai": 1081,
      "bar": 1082,
      "bed": 1083,
      "cut": 1084,
      "cities": 1085,
      "fer": 1086,
      "golf": 1087,
      "king": 1088,
      "mat": 1089,
      "ose": 1090,
      "row": 1091,
      "ric": 1092,
      "rain": 1093,
      "right": 1094,
      "tu": 1095,
      "held": 1096,
      "ating": 1097,
      "them": 1098,
      "ince": 1099,
      "reg": 1100,
      "reet": 1101,
      "ord": 1102,
      "ason": 1103,
      "mot": 1104,
      "ago": 1105,
      "aking": 1106,
      "cted": 1107,
      "contr": 1108,
      "female": 1109,
      "features": 1110,
      "asts": 1111,
      "osis": 1112,
      "ments": 1113,
      "carto": 1114,
      "gover": 1115,
      "letter": 1116,
      "cord": 1117,
      "burg": 1118,
      "love": 1119,
      "ixon": 1120,
      "biggest": 1121,
      "nickname": 1122,
      "Ital": 1123,
      "disease": 1124,
      "Super": 1125,
      "George": 1126,
      "17": 1127,
      "Bar": 1128,
      "Gen": 1129,
      "Great": 1130,
      "James": 1131,
      "Lou": 1132,
      "Lond": 1133,
      "Nixon": 1134,
      "River": 1135,
      "ctr": 1136,
      "ef": 1137,
      "great": 1138,
      "house": 1139,
      "met": 1140,
      "na": 1141,
      "ness": 1142,
      "she": 1143,
      "suc": 1144,
      "site": 1145,
      "vo": 1146,
      "ward": 1147,
      "yer": 1148,
      "anish": 1149,
      "island": 1150,
      "strip": 1151,
      "comic": 1152,
      "imp": 1153,
      "moon": 1154,
      "ult": 1155,
      "cean": 1156,
      "dep": 1157,
      "ists": 1158,
      "ried": 1159,
      "boasts": 1160,
      "ney": 1161,
      "player": 1162,
      "ession": 1163,
      "blood": 1164,
      "velop": 1165,
      "ways": 1166,
      "England": 1167,
      "someone": 1168,
      "office": 1169,
      "newsp": 1170,
      "following": 1171,
      "children": 1172,
      "Germany": 1173,
      "travel": 1174,
      "Canada": 1175,
      "London": 1176,
      "Je": 1177,
      "My": 1178,
      "May": 1179,
      "Wash": 1180,
      "ado": 1181,
      "cow": 1182,
      "care": 1183,
      "cour": 1184,
      "cup": 1185,
      "down": 1186,
      "gold": 1187,
      "girl": 1188,
      "iest": 1189,
      "may": 1190,
      "rac": 1191,
      "scar": 1192,
      "tour": 1193,
      "ufact": 1194,
      "ving": 1195,
      "hed": 1196,
      "inter": 1197,
      "alt": 1198,
      "stop": 1199,
      "enter": 1200,
      "area": 1201,
      "elf": 1202,
      "comed": 1203,
      "ims": 1204,
      "move": 1205,
      "und": 1206,
      "defin": 1207,
      "develop": 1208,
      "need": 1209,
      "know": 1210,
      "phone": 1211,
      "flag": 1212,
      "discover": 1213,
      "letters": 1214,
      "century": 1215,
      "Spanish": 1216,
      "aska": 1217,
      "ject": 1218,
      "Japanese": 1219,
      "continent": 1220,
      "newspaper": 1221,
      "Washington": 1222,
      "10": 1223,
      "Air": 1224,
      "Austr": 1225,
      "City": 1226,
      "El": 1227,
      "Gree": 1228,
      "Hit": 1229,
      "Hol": 1230,
      "Mic": 1231,
      "Pe": 1232,
      "Ph": 1233,
      "Pri": 1234,
      "Que": 1235,
      "Rich": 1236,
      "Viet": 1237,
      "bot": 1238,
      "bowl": 1239,
      "cle": 1240,
      "face": 1241,
      "gs": 1242,
      "gas": 1243,
      "horse": 1244,
      "ier": 1245,
      "ique": 1246,
      "lor": 1247,
      "list": 1248,
      "look": 1249,
      "ming": 1250,
      "mall": 1251,
      "now": 1252,
      "squ": 1253,
      "tree": 1254,
      "tax": 1255,
      "uel": 1256,
      "another": 1257,
      "ison": 1258,
      "reen": 1259,
      "once": 1260,
      "ased": 1261,
      "astr": 1262,
      "ald": 1263,
      "alia": 1264,
      "stone": 1265,
      "store": 1266,
      "states": 1267,
      "itz": 1268,
      "ites": 1269,
      "lebr": 1270,
      "dol": 1271,
      "ache": 1272,
      "Whose": 1273,
      "former": 1274,
      "ely": 1275,
      "manufact": 1276,
      "ady": 1277,
      "rod": 1278,
      "seven": 1279,
      "vert": 1280,
      "celebr": 1281,
      "abet": 1282,
      "ctor": 1283,
      "member": 1284,
      "hair": 1285,
      "box": 1286,
      "ounds": 1287,
      "oldest": 1288,
      "prof": 1289,
      "ivil": 1290,
      "ression": 1291,
      "words": 1292,
      "University": 1293,
      "ches": 1294,
      "married": 1295,
      "served": 1296,
      "hole": 1297,
      "Sea": 1298,
      "design": 1299,
      "lawyer": 1300,
      "ucky": 1301,
      "Frank": 1302,
      "runs": 1303,
      "television": 1304,
      "European": 1305,
      "happened": 1306,
      "Hitler": 1307,
      "Vietnam": 1308,
      "Big": 1309,
      "Bowl": 1310,
      "Cr": 1311,
      "Coun": 1312,
      "Cap": 1313,
      "Haw": 1314,
      "Kent": 1315,
      "Lit": 1316,
      "Mad": 1317,
      "Mex": 1318,
      "No": 1319,
      "Oscar": 1320,
      "Pl": 1321,
      "So": 1322,
      "Tex": 1323,
      "bel": 1324,
      "battle": 1325,
      "cast": 1326,
      "don": 1327,
      "dam": 1328,
      "det": 1329,
      "dist": 1330,
      "gu": 1331,
      "iel": 1332,
      "jo": 1333,
      "mal": 1334,
      "mit": 1335,
      "mile": 1336,
      "ned": 1337,
      "national": 1338,
      "ped": 1339,
      "pit": 1340,
      "paper": 1341,
      "ron": 1342,
      "sup": 1343,
      "tell": 1344,
      "val": 1345,
      "vice": 1346,
      "wear": 1347,
      "walk": 1348,
      "wife": 1349,
      "then": 1350,
      "incl": 1351,
      "record": 1352,
      "stit": 1353,
      "amb": 1354,
      "omb": 1355,
      "omen": 1356,
      "acid": 1357,
      "role": 1358,
      "rock": 1359,
      "sex": 1360,
      "trad": 1361,
      "being": 1362,
      "before": 1363,
      "diam": 1364,
      "diers": 1365,
      "ula": 1366,
      "worth": 1367,
      "192": 1368,
      "une": 1369,
      "ument": 1370,
      "aine": 1371,
      "death": 1372,
      "ution": 1373,
      "wee": 1374,
      "quar": 1375,
      "bert": 1376,
      "code": 1377,
      "class": 1378,
      "grow": 1379,
      "thern": 1380,
      "ization": 1381,
      "avor": 1382,
      "electr": 1383,
      "introd": 1384,
      "189": 1385,
      "animals": 1386,
      "pregn": 1387,
      "music": 1388,
      "eye": 1389,
      "Christmas": 1390,
      "Africa": 1391,
      "football": 1392,
      "temper": 1393,
      "present": 1394,
      "baby": 1395,
      "percentage": 1396,
      "success": 1397,
      "definition": 1398,
      "Airport": 1399,
      "astron": 1400,
      "Kentucky": 1401,
      "At": 1402,
      "Bra": 1403,
      "CNN": 1404,
      "Des": 1405,
      "Gar": 1406,
      "God": 1407,
      "Lat": 1408,
      "Mr": 1409,
      "Mich": 1410,
      "Old": 1411,
      "Red": 1412,
      "Rock": 1413,
      "Wind": 1414,
      "Wood": 1415,
      "bers": 1416,
      "cam": 1417,
      "dle": 1418,
      "dom": 1419,
      "dro": 1420,
      "eth": 1421,
      "giv": 1422,
      "hol": 1423,
      "hold": 1424,
      "iend": 1425,
      "ks": 1426,
      "ky": 1427,
      "la": 1428,
      "low": 1429,
      "mid": 1430,
      "mail": 1431,
      "ning": 1432,
      "net": 1433,
      "nment": 1434,
      "pat": 1435,
      "publ": 1436,
      "rom": 1437,
      "ring": 1438,
      "town": 1439,
      "ute": 1440,
      "where": 1441,
      "ys": 1442,
      "ange": 1443,
      "ancy": 1444,
      "ished": 1445,
      "ert": 1446,
      "rew": 1447,
      "aster": 1448,
      "asure": 1449,
      "ows": 1450,
      "omet": 1451,
      "oly": 1452,
      "aret": 1453,
      "advert": 1454,
      "chick": 1455,
      "allow": 1456,
      "sea": 1457,
      "commer": 1458,
      "beer": 1459,
      "ploy": 1460,
      "umb": 1461,
      "depart": 1462,
      "friend": 1463,
      "spok": 1464,
      "feature": 1465,
      "shot": 1466,
      "weight": 1467,
      "cold": 1468,
      "berg": 1469,
      "bercul": 1470,
      "compan": 1471,
      "exp": 1472,
      "Star": 1473,
      "aws": 1474,
      "emp": 1475,
      "prime": 1476,
      "cret": 1477,
      "auth": 1478,
      "ause": 1479,
      "ized": 1480,
      "symb": 1481,
      "ennis": 1482,
      "center": 1483,
      "issipp": 1484,
      "All": 1485,
      "Alaska": 1486,
      "viet": 1487,
      "offic": 1488,
      "singer": 1489,
      "asket": 1490,
      "sports": 1491,
      "minister": 1492,
      "000": 1493,
      "produce": 1494,
      "Indian": 1495,
      "Indians": 1496,
      "founded": 1497,
      "Steven": 1498,
      "every": 1499,
      "Mississipp": 1500,
      "lives": 1501,
      "building": 1502,
      "radio": 1503,
      "tubercul": 1504,
      "cartoon": 1505,
      "comedian": 1506,
      "Australia": 1507,
      "Greek": 1508,
      "Phil": 1509,
      "Queen": 1510,
      "Richard": 1511,
      "Little": 1512,
      "Texas": 1513,
      "symbol": 1514,
      "Mississippi": 1515,
      "tuberculosis": 1516,
      "..": 1517,
      "13": 1518,
      "Am": 1519,
      "Ben": 1520,
      "Bel": 1521,
      "Dav": 1522,
      "Er": 1523,
      "Ex": 1524,
      "Fe": 1525,
      "Her": 1526,
      "House": 1527,
      "Lu": 1528,
      "Law": 1529,
      "Med": 1530,
      "Mac": 1531,
      "Mil": 1532,
      "Mag": 1533,
      "Mass": 1534,
      "Or": 1535,
      "Pro": 1536,
      "Pope": 1537,
      "Ro": 1538,
      "Tr": 1539,
      "cis": 1540,
      "ces": 1541,
      "ced": 1542,
      "fac": 1543,
      "fun": 1544,
      "fish": 1545,
      "ged": 1546,
      "hi": 1547,
      "ious": 1548,
      "kid": 1549,
      "ov": 1550,
      "pen": 1551,
      "pus": 1552,
      "sle": 1553,
      "soc": 1554,
      "saw": 1555,
      "scre": 1556,
      "six": 1557,
      "size": 1558,
      "small": 1559,
      "tro": 1560,
      "vid": 1561,
      "winn": 1562,
      "hel": 1563,
      "instr": 1564,
      "ret": 1565,
      "read": 1566,
      "alph": 1567,
      "ico": 1568,
      "league": 1569,
      "ett": 1570,
      "tract": 1571,
      "ears": 1572,
      "while": 1573,
      "pect": 1574,
      "lies": 1575,
      "lived": 1576,
      "ump": 1577,
      "oci": 1578,
      "occur": 1579,
      "prop": 1580,
      "ieve": 1581,
      "quest": 1582,
      "never": 1583,
      "clos": 1584,
      "China": 1585,
      "gram": 1586,
      "uced": 1587,
      "employ": 1588,
      "ival": 1589,
      "thers": 1590,
      "original": 1591,
      "originate": 1592,
      "poet": 1593,
      "flight": 1594,
      "famed": 1595,
      "affe": 1596,
      "range": 1597,
      "series": 1598,
      "starred": 1599,
      "fire": 1600,
      "host": 1601,
      "singing": 1602,
      "general": 1603,
      "International": 1604,
      "musical": 1605,
      "writer": 1606,
      "ology": 1607,
      "African": 1608,
      "magaz": 1609,
      "soldiers": 1610,
      "million": 1611,
      "director": 1612,
      "Olympic": 1613,
      "Louis": 1614,
      "effect": 1615,
      "discovered": 1616,
      "Prize": 1617,
      "Soviet": 1618,
      "introduced": 1619,
      "department": 1620,
      "author": 1621,
      "asketball": 1622,
      "alphabet": 1623,
      "0s": 1624,
      "11": 1625,
      "But": 1626,
      "Bible": 1627,
      "Co": 1628,
      "DS": 1629,
      "Gold": 1630,
      "Ham": 1631,
      "Horse": 1632,
      "Jim": 1633,
      "Kore": 1634,
      "Los": 1635,
      "Mary": 1636,
      "Rep": 1637,
      "Si": 1638,
      "Tit": 1639,
      "Tom": 1640,
      "Way": 1641,
      "aul": 1642,
      "bill": 1643,
      "cat": 1644,
      "cop": 1645,
      "cri": 1646,
      "dub": 1647,
      "ect": 1648,
      "fing": 1649,
      "fought": 1650,
      "ger": 1651,
      "games": 1652,
      "lam": 1653,
      "ms": 1654,
      "mur": 1655,
      "mach": 1656,
      "ny": 1657,
      "non": 1658,
      "nuc": 1659,
      "sound": 1660,
      "side": 1661,
      "somet": 1662,
      "test": 1663,
      "treat": 1664,
      "tennis": 1665,
      "ule": 1666,
      "uff": 1667,
      "uary": 1668,
      "went": 1669,
      "wine": 1670,
      "watch": 1671,
      "women": 1672,
      "yo": 1673,
      "za": 1674,
      "hero": 1675,
      "heart": 1676,
      "atur": 1677,
      "atcher": 1678,
      "White": 1679,
      "inal": 1680,
      "income": 1681,
      "inese": 1682,
      "anic": 1683,
      "era": 1684,
      "rees": 1685,
      "rece": 1686,
      "requ": 1687,
      "revol": 1688,
      "represent": 1689,
      "ency": 1690,
      "oux": 1691,
      "stat": 1692,
      "stud": 1693,
      "icago": 1694,
      "roy": 1695,
      "road": 1696,
      "ays": 1697,
      "sey": 1698,
      "try": 1699,
      "trial": 1700,
      "aker": 1701,
      "unk": 1702,
      "university": 1703,
      "peare": 1704,
      "lie": 1705,
      "dead": 1706,
      "ockey": 1707,
      "program": 1708,
      "ians": 1709,
      "Chinese": 1710,
      "Chicago": 1711,
      "antic": 1712,
      "ext": 1713,
      "ellow": 1714,
      "plays": 1715,
      "ured": 1716,
      "rail": 1717,
      "ended": 1718,
      "Americans": 1719,
      "sons": 1720,
      "Marvel": 1721,
      "drug": 1722,
      "birds": 1723,
      "akespeare": 1724,
      "ictor": 1725,
      "caused": 1726,
      "Shakespeare": 1727,
      "1984": 1728,
      "Islands": 1729,
      "cient": 1730,
      "full": 1731,
      "often": 1732,
      "titled": 1733,
      "fastest": 1734,
      "produced": 1735,
      "Black": 1736,
      "German": 1737,
      "iety": 1738,
      "liter": 1739,
      "snow": 1740,
      "started": 1741,
      "Jackson": 1742,
      "Prince": 1743,
      "onym": 1744,
      "graph": 1745,
      "graphy": 1746,
      "Berlin": 1747,
      "cards": 1748,
      "planet": 1749,
      "website": 1750,
      "tallest": 1751,
      "types": 1752,
      "selling": 1753,
      "consider": 1754,
      "species": 1755,
      "ference": 1756,
      "dollar": 1757,
      "detect": 1758,
      "avorite": 1759,
      "temperature": 1760,
      "astronaut": 1761,
      "Latin": 1762,
      "Sioux": 1763,
      "dubbed": 1764,
      "nuclear": 1765,
      "sometimes": 1766,
      "Ap": 1767,
      "Bo": 1768,
      "Bill": 1769,
      "Cl": 1770,
      "Cong": 1771,
      "Dr": 1772,
      "Die": 1773,
      "En": 1774,
      "East": 1775,
      "For": 1776,
      "Good": 1777,
      "Gould": 1778,
      "Hen": 1779,
      "Jaws": 1780,
      "Lin": 1781,
      "Luc": 1782,
      "Ma": 1783,
      "Mer": 1784,
      "Maur": 1785,
      "Mount": 1786,
      "NA": 1787,
      "Night": 1788,
      "Nob": 1789,
      "Per": 1790,
      "Par": 1791,
      "Peter": 1792,
      "Rom": 1793,
      "Ros": 1794,
      "Rog": 1795,
      "Roman": 1796,
      "Sw": 1797,
      "Sam": 1798,
      "Sil": 1799,
      "Simp": 1800,
      "To": 1801,
      "VH": 1802,
      "We": 1803,
      "Water": 1804,
      "Yan": 1805,
      "aff": 1806,
      "bat": 1807,
      "bum": 1808,
      "basketball": 1809,
      "cad": 1810,
      "cig": 1811,
      "cos": 1812,
      "cere": 1813,
      "dig": 1814,
      "dri": 1815,
      "daugh": 1816,
      "ev": 1817,
      "event": 1818,
      "fed": 1819,
      "fame": 1820,
      "favorite": 1821,
      "gate": 1822,
      "hour": 1823,
      "ired": 1824,
      "jour": 1825,
      "lim": 1826,
      "late": 1827,
      "lab": 1828,
      "mn": 1829,
      "mic": 1830,
      "mouth": 1831,
      "night": 1832,
      "oes": 1833,
      "oil": 1834,
      "ocean": 1835,
      "pal": 1836,
      "pet": 1837,
      "pig": 1838,
      "ris": 1839,
      "race": 1840,
      "roll": 1841,
      "sen": 1842,
      "ves": 1843,
      "var": 1844,
      "vac": 1845,
      "vide": 1846,
      "wood": 1847,
      "yl": 1848,
      "yard": 1849,
      "het": 1850,
      "ini": 1851,
      "intern": 1852,
      "ont": 1853,
      "ories": 1854,
      "order": 1855,
      "aron": 1856,
      "around": 1857,
      "ener": 1858,
      "outhern": 1859,
      "stock": 1860,
      "itor": 1861,
      "left": 1862,
      "ille": 1863,
      "ility": 1864,
      "etts": 1865,
      "els": 1866,
      "chn": 1867,
      "search": 1868,
      "vey": 1869,
      "beg": 1870,
      "imum": 1871,
      "opoly": 1872,
      "using": 1873,
      "usetts": 1874,
      "mother": 1875,
      "ape": 1876,
      "tee": 1877,
      "whom": 1878,
      "white": 1879,
      "oose": 1880,
      "ples": 1881,
      "decl": 1882,
      "occup": 1883,
      "colon": 1884,
      "coast": 1885,
      "clo": 1886,
      "grad": 1887,
      "expect": 1888,
      "award": 1889,
      "prom": 1890,
      "balls": 1891,
      "brand": 1892,
      "bridge": 1893,
      "cars": 1894,
      "must": 1895,
      "auto": 1896,
      "phant": 1897,
      "achusetts": 1898,
      "formed": 1899,
      "Union": 1900,
      "enny": 1901,
      "elected": 1902,
      "elephant": 1903,
      "affect": 1904,
      "also": 1905,
      "buried": 1906,
      "numbers": 1907,
      "characters": 1908,
      "And": 1909,
      "visit": 1910,
      "Thom": 1911,
      "Thatcher": 1912,
      "Island": 1913,
      "speed": 1914,
      "Bridge": 1915,
      "poss": 1916,
      "position": 1917,
      "France": 1918,
      "autom": 1919,
      "languages": 1920,
      "histor": 1921,
      "suit": 1922,
      "super": 1923,
      "swim": 1924,
      "headquar": 1925,
      "because": 1926,
      "hands": 1927,
      "telephone": 1928,
      "Monopoly": 1929,
      "Shea": 1930,
      "engine": 1931,
      "organization": 1932,
      "Scot": 1933,
      "months": 1934,
      "current": 1935,
      "Angeles": 1936,
      "Asian": 1937,
      "government": 1938,
      "Italy": 1939,
      "General": 1940,
      "greatest": 1941,
      "depend": 1942,
      "cowboy": 1943,
      "course": 1944,
      "square": 1945,
      "profession": 1946,
      "join": 1947,
      "includ": 1948,
      "week": 1949,
      "electric": 1950,
      "successful": 1951,
      "middle": 1952,
      "spoken": 1953,
      "Massachusetts": 1954,
      "sleep": 1955,
      "instrument": 1956,
      "magazine": 1957,
      "murder": 1958,
      "Henry": 1959,
      "Yanke": 1960,
      "21": 1961,
      "24": 1962,
      "27": 1963,
      "AI": 1964,
      "Ass": 1965,
      "Battle": 1966,
      "Cor": 1967,
      "Cast": 1968,
      "Civil": 1969,
      "Do": 1970,
      "Don": 1971,
      "Ever": 1972,
      "From": 1973,
      "Gu": 1974,
      "He": 1975,
      "Hill": 1976,
      "Ire": 1977,
      "Jer": 1978,
      "La": 1979,
      "Lo": 1980,
      "Mel": 1981,
      "Po": 1982,
      "Pol": 1983,
      "Pel": 1984,
      "Ray": 1985,
      "Rub": 1986,
      "Rob": 1987,
      "Ser": 1988,
      "Soc": 1989,
      "Tw": 1990,
      "Van": 1991,
      "Vir": 1992,
      "Victor": 1993,
      "Wall": 1994,
      "ael": 1995,
      "bul": 1996,
      "bio": 1997,
      "based": 1998,
      "cil": 1999,
      "cir": 2000,
      "cell": 2001,
      "cook": 2002,
      "cial": 2003,
      "cross": 2004,
      "caffe": 2005,
      "den": 2006,
      "del": 2007,
      "deter": 2008,
      "ecut": 2009,
      "fur": 2010,
      "free": 2011,
      "gar": 2012,
      "gall": 2013,
      "got": 2014,
      "give": 2015,
      "gave": 2016,
      "hur": 2017,
      "hus": 2018,
      "ju": 2019,
      "jack": 2020,
      "ka": 2021,
      "lake": 2022,
      "less": 2023,
      "mel": 2024,
      "mart": 2025,
      "mix": 2026,
      "making": 2027,
      "nal": 2028,
      "nap": 2029,
      "near": 2030,
      "natur": 2031,
      "phen": 2032,
      "paid": 2033,
      "pets": 2034,
      "ror": 2035,
      "sat": 2036,
      "sco": 2037,
      "sites": 2038,
      "tar": 2039,
      "tou": 2040,
      "ues": 2041,
      "uit": 2042,
      "vest": 2043,
      "vict": 2044,
      "well": 2045,
      "xt": 2046,
      "hear": 2047,
      "heav": 2048,
      "inc": 2049,
      "insp": 2050,
      "ints": 2051,
      "erup": 2052,
      "rele": 2053,
      "reason": 2054,
      "onna": 2055,
      "estern": 2056,
      "arian": 2057,
      "asc": 2058,
      "aste": 2059,
      "ene": 2060,
      "stor": 2061,
      "station": 2062,
      "sters": 2063,
      "story": 2064,
      "ita": 2065,
      "itude": 2066,
      "lex": 2067,
      "lete": 2068,
      "least": 2069,
      "level": 2070,
      "ides": 2071,
      "chair": 2072,
      "secret": 2073,
      "estab": 2074,
      "urch": 2075,
      "comes": 2076,
      "bean": 2077,
      "bear": 2078,
      "again": 2079,
      "unch": 2080,
      "conom": 2081,
      "measure": 2082,
      "short": 2083,
      "ota": 2084,
      "ots": 2085,
      "process": 2086,
      "owns": 2087,
      "berry": 2088,
      "clock": 2089,
      "compos": 2090,
      "expl": 2091,
      "State": 2092,
      "ends": 2093,
      "keep": 2094,
      "ived": 2095,
      "ified": 2096,
      "points": 2097,
      "flo": 2098,
      "flow": 2099,
      "element": 2100,
      "strong": 2101,
      "view": 2102,
      "March": 2103,
      "inside": 2104,
      "iod": 2105,
      "stars": 2106,
      "Spain": 2107,
      "correct": 2108,
      "bird": 2109,
      "lost": 2110,
      "curity": 2111,
      "Show": 2112,
      "Columb": 2113,
      "gener": 2114,
      "milk": 2115,
      "Carol": 2116,
      "Francis": 2117,
      "stein": 2118,
      "birthday": 2119,
      "medic": 2120,
      "medical": 2121,
      "paint": 2122,
      "painted": 2123,
      "Comm": 2124,
      "Comp": 2125,
      "eyes": 2126,
      "police": 2127,
      "producer": 2128,
      "eggs": 2129,
      "relig": 2130,
      "claimed": 2131,
      "Moz": 2132,
      "plane": 2133,
      "products": 2134,
      "opera": 2135,
      "Olympics": 2136,
      "setting": 2137,
      "glass": 2138,
      "currency": 2139,
      "transplant": 2140,
      "assassinated": 2141,
      "motto": 2142,
      "control": 2143,
      "Jew": 2144,
      "developed": 2145,
      "itzer": 2146,
      "Mexico": 2147,
      "nationality": 2148,
      "pitcher": 2149,
      "diamond": 2150,
      "Atl": 2151,
      "chicken": 2152,
      "allowed": 2153,
      "commercial": 2154,
      "featured": 2155,
      "companies": 2156,
      "screen": 2157,
      "Jimmy": 2158,
      "Titanic": 2159,
      "students": 2160,
      "considered": 2161,
      "Congress": 2162,
      "Nobel": 2163,
      "cigaret": 2164,
      "international": 2165,
      "Thomas": 2166,
      "automob": 2167,
      "Ireland": 2168,
      "husband": 2169,
      "Columbia": 2170,
      "Aaron": 2171,
      "Bil": 2172,
      "Bear": 2173,
      "Bob": 2174,
      "CD": 2175,
      "Cart": 2176,
      "Clar": 2177,
      "Cross": 2178,
      "Cost": 2179,
      "Dan": 2180,
      "Dis": 2181,
      "Dood": 2182,
      "FL": 2183,
      "Four": 2184,
      "Flor": 2185,
      "Gate": 2186,
      "Games": 2187,
      "Green": 2188,
      "Ir": 2189,
      "Jul": 2190,
      "Ku": 2191,
      "Lakes": 2192,
      "Mus": 2193,
      "Mart": 2194,
      "Mut": 2195,
      "Mountain": 2196,
      "NFL": 2197,
      "Ocean": 2198,
      "Penn": 2199,
      "Ru": 2200,
      "Sen": 2201,
      "Tri": 2202,
      "Tok": 2203,
      "Vat": 2204,
      "WW": 2205,
      "Youn": 2206,
      "bon": 2207,
      "bone": 2208,
      "bomb": 2209,
      "cro": 2210,
      "came": 2211,
      "cab": 2212,
      "cot": 2213,
      "could": 2214,
      "cry": 2215,
      "cats": 2216,
      "da": 2217,
      "econom": 2218,
      "fs": 2219,
      "fle": 2220,
      "fol": 2221,
      "fine": 2222,
      "gent": 2223,
      "gain": 2224,
      "hun": 2225,
      "hard": 2226,
      "ien": 2227,
      "ius": 2228,
      "just": 2229,
      "ling": 2230,
      "log": 2231,
      "lady": 2232,
      "mor": 2233,
      "mes": 2234,
      "mam": 2235,
      "mult": 2236,
      "nie": 2237,
      "oz": 2238,
      "ote": 2239,
      "oven": 2240,
      "py": 2241,
      "ple": 2242,
      "pil": 2243,
      "pot": 2244,
      "page": 2245,
      "pounds": 2246,
      "rid": 2247,
      "rics": 2248,
      "rule": 2249,
      "sc": 2250,
      "sent": 2251,
      "same": 2252,
      "tab": 2253,
      "tail": 2254,
      "taste": 2255,
      "ually": 2256,
      "van": 2257,
      "vir": 2258,
      "wid": 2259,
      "wall": 2260,
      "wind": 2261,
      "wage": 2262,
      "yn": 2263,
      "youn": 2264,
      "zy": 2265,
      "attract": 2266,
      "inches": 2267,
      "ero": 2268,
      "remove": 2269,
      "online": 2270,
      "alo": 2271,
      "always": 2272,
      "album": 2273,
      "street": 2274,
      "itch": 2275,
      "ices": 2276,
      "icles": 2277,
      "amount": 2278,
      "omin": 2279,
      "ombo": 2280,
      "ida": 2281,
      "told": 2282,
      "acy": 2283,
      "aces": 2284,
      "aced": 2285,
      "this": 2286,
      "thal": 2287,
      "ador": 2288,
      "room": 2289,
      "choc": 2290,
      "champ": 2291,
      "change": 2292,
      "iger": 2293,
      "tery": 2294,
      "seas": 2295,
      "season": 2296,
      "train": 2297,
      "trip": 2298,
      "coming": 2299,
      "imate": 2300,
      "ops": 2301,
      "appe": 2302,
      "early": 2303,
      "resp": 2304,
      "ulf": 2305,
      "unt": 2306,
      "ummer": 2307,
      "deg": 2308,
      "county": 2309,
      "memb": 2310,
      "artist": 2311,
      "astic": 2312,
      "weap": 2313,
      "weigh": 2314,
      "coln": 2315,
      "pert": 2316,
      "coach": 2317,
      "without": 2318,
      "close": 2319,
      "ource": 2320,
      "exper": 2321,
      "execut": 2322,
      "Street": 2323,
      "players": 2324,
      "blue": 2325,
      "twins": 2326,
      "cred": 2327,
      "cream": 2328,
      "create": 2329,
      "originally": 2330,
      "rence": 2331,
      "brain": 2332,
      "pho": 2333,
      "answ": 2334,
      "anger": 2335,
      "flower": 2336,
      "buy": 2337,
      "family": 2338,
      "ched": 2339,
      "syn": 2340,
      "election": 2341,
      "stru": 2342,
      "airport": 2343,
      "Wars": 2344,
      "presidents": 2345,
      "serve": 2346,
      "Spuman": 2347,
      "Arch": 2348,
      "books": 2349,
      "burn": 2350,
      "1963": 2351,
      "breed": 2352,
      "minimum": 2353,
      "1983": 2354,
      "hydro": 2355,
      "League": 2356,
      "NNP": 2357,
      "India": 2358,
      "Colle": 2359,
      "contact": 2360,
      "Carib": 2361,
      "posed": 2362,
      "followed": 2363,
      "schools": 2364,
      "volcan": 2365,
      "attack": 2366,
      "attend": 2367,
      "written": 2368,
      "submar": 2369,
      "living": 2370,
      "ances": 2371,
      "market": 2372,
      "border": 2373,
      "command": 2374,
      "ublic": 2375,
      "turned": 2376,
      "richest": 2377,
      "rights": 2378,
      "governor": 2379,
      "career": 2380,
      "Micro": 2381,
      "bott": 2382,
      "celebrated": 2383,
      "County": 2384,
      "Captain": 2385,
      "Hawai": 2386,
      "believe": 2387,
      "ambique": 2388,
      "1899": 2389,
      "Michael": 2390,
      "domest": 2391,
      "given": 2392,
      "patent": 2393,
      "expression": 2394,
      "Korea": 2395,
      "machines": 2396,
      "Diego": 2397,
      "Lincoln": 2398,
      "VHS": 2399,
      "video": 2400,
      "awarded": 2401,
      "headquarters": 2402,
      "AIDS": 2403,
      "Associ": 2404,
      "Virgin": 2405,
      "natural": 2406,
      "touch": 2407,
      "erupt": 2408,
      "Mozambique": 2409,
      "Atlantic": 2410,
      "cigarette": 2411,
      "automobile": 2412,
      "Florida": 2413,
      "Tokyo": 2414,
      "Vatican": 2415,
      "chocol": 2416,
      "appeared": 2417,
      "members": 2418,
      "Spumante": 2419,
      "Caribbean": 2420,
      "25": 2421,
      "28": 2422,
      "Ad": 2423,
      "Ama": 2424,
      "Award": 2425,
      "Alex": 2426,
      "BM": 2427,
      "Bab": 2428,
      "Bud": 2429,
      "Bond": 2430,
      "Boy": 2431,
      "Bull": 2432,
      "CP": 2433,
      "Cal": 2434,
      "Cent": 2435,
      "DC": 2436,
      "Em": 2437,
      "Ele": 2438,
      "Fre": 2439,
      "Far": 2440,
      "Fore": 2441,
      "Fred": 2442,
      "Ford": 2443,
      "Go": 2444,
      "Gam": 2445,
      "Hom": 2446,
      "Hel": 2447,
      "Just": 2448,
      "Jude": 2449,
      "Kid": 2450,
      "Li": 2451,
      "Lake": 2452,
      "Mor": 2453,
      "Mal": 2454,
      "Mup": 2455,
      "Mother": 2456,
      "Nap": 2457,
      "Naz": 2458,
      "Pan": 2459,
      "Pas": 2460,
      "Pow": 2461,
      "Pit": 2462,
      "Pho": 2463,
      "Paul": 2464,
      "Roose": 2465,
      "SI": 2466,
      "Sch": 2467,
      "Val": 2468,
      "Veg": 2469,
      "Won": 2470,
      "You": 2471,
      "aj": 2472,
      "bie": 2473,
      "bour": 2474,
      "bell": 2475,
      "bull": 2476,
      "cter": 2477,
      "coc": 2478,
      "craft": 2479,
      "civil": 2480,
      "dou": 2481,
      "done": 2482,
      "dail": 2483,
      "dict": 2484,
      "danc": 2485,
      "eas": 2486,
      "fat": 2487,
      "fro": 2488,
      "fig": 2489,
      "fall": 2490,
      "fight": 2491,
      "file": 2492,
      "green": 2493,
      "hor": 2494,
      "him": 2495,
      "hot": 2496,
      "hous": 2497,
      "hims": 2498,
      "lay": 2499,
      "lob": 2500,
      "lock": 2501,
      "leng": 2502,
      "mith": 2503,
      "miss": 2504,
      "mund": 2505,
      "maker": 2506,
      "nest": 2507,
      "nine": 2508,
      "ograph": 2509,
      "pan": 2510,
      "pow": 2511,
      "psy": 2512,
      "pict": 2513,
      "pull": 2514,
      "rat": 2515,
      "ram": 2516,
      "rul": 2517,
      "rum": 2518,
      "rup": 2519,
      "round": 2520,
      "rates": 2521,
      "sa": 2522,
      "sold": 2523,
      "sail": 2524,
      "sister": 2525,
      "southern": 2526,
      "uk": 2527,
      "ux": 2528,
      "voc": 2529,
      "wa": 2530,
      "wart": 2531,
      "wide": 2532,
      "wings": 2533,
      "western": 2534,
      "zil": 2535,
      "hes": 2536,
      "invol": 2537,
      "ising": 2538,
      "islands": 2539,
      "ering": 2540,
      "ref": 2541,
      "ream": 2542,
      "reme": 2543,
      "reach": 2544,
      "rection": 2545,
      "orb": 2546,
      "educ": 2547,
      "oud": 2548,
      "oul": 2549,
      "stick": 2550,
      "itiz": 2551,
      "ici": 2552,
      "ically": 2553,
      "legr": 2554,
      "door": 2555,
      "ided": 2556,
      "took": 2557,
      "accoun": 2558,
      "across": 2559,
      "thir": 2560,
      "thur": 2561,
      "adway": 2562,
      "adult": 2563,
      "igation": 2564,
      "terror": 2565,
      "seen": 2566,
      "veget": 2567,
      "comics": 2568,
      "bee": 2569,
      "beach": 2570,
      "import": 2571,
      "oph": 2572,
      "open": 2573,
      "ager": 2574,
      "apter": 2575,
      "appro": 2576,
      "earl": 2577,
      "techn": 2578,
      "ular": 2579,
      "unn": 2580,
      "lik": 2581,
      "lip": 2582,
      "ume": 2583,
      "fruit": 2584,
      "cancer": 2585,
      "counter": 2586,
      "lyrics": 2587,
      "istics": 2588,
      "spr": 2589,
      "sper": 2590,
      "meant": 2591,
      "having": 2592,
      "prov": 2593,
      "prote": 2594,
      "peror": 2595,
      "perfect": 2596,
      "action": 2597,
      "activ": 2598,
      "berty": 2599,
      "iana": 2600,
      "iano": 2601,
      "complete": 2602,
      "ground": 2603,
      "exist": 2604,
      "Stu": 2605,
      "Stone": 2606,
      "away": 2607,
      "ureau": 2608,
      "bles": 2609,
      "emy": 2610,
      "large": 2611,
      "icket": 2612,
      "velt": 2613,
      "ender": 2614,
      "kept": 2615,
      "prim": 2616,
      "prison": 2617,
      "ogan": 2618,
      "ifth": 2619,
      "post": 2620,
      "pose": 2621,
      "poem": 2622,
      "izio": 2623,
      "god": 2624,
      "going": 2625,
      "ails": 2626,
      "object": 2627,
      "lets": 2628,
      "elements": 2629,
      "airs": 2630,
      "party": 2631,
      "Johnson": 2632,
      "Johnny": 2633,
      "days": 2634,
      "films": 2635,
      "presidential": 2636,
      "aterial": 2637,
      "Spiel": 2638,
      "corpus": 2639,
      "Arthur": 2640,
      "ension": 2641,
      "185": 2642,
      "burgh": 2643,
      "cury": 2644,
      "iction": 2645,
      "working": 2646,
      "single": 2647,
      "ustri": 2648,
      "animated": 2649,
      "condition": 2650,
      "crim": 2651,
      "crab": 2652,
      "oks": 2653,
      "Security": 2654,
      "Islam": 2655,
      "Lee": 2656,
      "leading": 2657,
      "desert": 2658,
      "prevent": 2659,
      "commonly": 2660,
      "1991": 2661,
      "1994": 2662,
      "Beat": 2663,
      "Carren": 2664,
      "location": 2665,
      "Brown": 2666,
      "USA": 2667,
      "Chris": 2668,
      "birthstone": 2669,
      "painting": 2670,
      "Charlie": 2671,
      "iverse": 2672,
      "winter": 2673,
      "produces": 2674,
      "little": 2675,
      "writing": 2676,
      "ologist": 2677,
      "Britain": 2678,
      "humans": 2679,
      "queen": 2680,
      "Christian": 2681,
      "Bern": 2682,
      "Harvey": 2683,
      "Reims": 2684,
      "brothers": 2685,
      "equal": 2686,
      "Grand": 2687,
      "salt": 2688,
      "salary": 2689,
      "purch": 2690,
      "Broadway": 2691,
      "McCarren": 2692,
      "Asia": 2693,
      "Jane": 2694,
      "Italian": 2695,
      "court": 2696,
      "mayor": 2697,
      "Holly": 2698,
      "bottle": 2699,
      "bowling": 2700,
      "clean": 2701,
      "Franklin": 2702,
      "Madonna": 2703,
      "distance": 2704,
      "stitute": 2705,
      "Brazil": 2706,
      "Mrs": 2707,
      "Rocky": 2708,
      "official": 2709,
      "Philipp": 2710,
      "Robert": 2711,
      "kids": 2712,
      "help": 2713,
      "umpty": 2714,
      "questions": 2715,
      "Golden": 2716,
      "received": 2717,
      "represented": 2718,
      "literary": 2719,
      "Mercury": 2720,
      "Maurizio": 2721,
      "Simpsons": 2722,
      "Watergate": 2723,
      "daughter": 2724,
      "events": 2725,
      "journal": 2726,
      "declared": 2727,
      "historical": 2728,
      "Yankee": 2729,
      "Castle": 2730,
      "Pellegr": 2731,
      "Robin": 2732,
      "caffeine": 2733,
      "score": 2734,
      "vestigation": 2735,
      "inspired": 2736,
      "against": 2737,
      "composer": 2738,
      "Francisco": 2739,
      "medicine": 2740,
      "religion": 2741,
      "Jewish": 2742,
      "Mutombo": 2743,
      "champion": 2744,
      "degrees": 2745,
      "answers": 2746,
      "College": 2747,
      "submarine": 2748,
      "Microsoft": 2749,
      "domestic": 2750,
      "chocolate": 2751,
      "Amaz": 2752,
      "Alexand": 2753,
      "Muppets": 2754,
      "Roosevelt": 2755,
      "Vegas": 2756,
      "Wonder": 2757,
      "cocaine": 2758,
      "daily": 2759,
      "houses": 2760,
      "himself": 2761,
      "length": 2762,
      "Spielberg": 2763,
      "Pellegrin": 2764,
      "14": 2765,
      "20": 2766,
      "22": 2767,
      "2000": 2768,
      "49": 2769,
      "55": 2770,
      "80": 2771,
      "98": 2772,
      "Acad": 2773,
      "Ba": 2774,
      "Bat": 2775,
      "Bet": 2776,
      "Bur": 2777,
      "Box": 2778,
      "Bush": 2779,
      "Buff": 2780,
      "Benny": 2781,
      "Bureau": 2782,
      "Cat": 2783,
      "DT": 2784,
      "Del": 2785,
      "Dep": 2786,
      "Dik": 2787,
      "Fl": 2788,
      "Fort": 2789,
      "Get": 2790,
      "HI": 2791,
      "Hear": 2792,
      "Hum": 2793,
      "Hem": 2794,
      "Hung": 2795,
      "IP": 2796,
      "If": 2797,
      "IBM": 2798,
      "Jes": 2799,
      "Kas": 2800,
      "Kev": 2801,
      "Las": 2802,
      "Lind": 2803,
      "Me": 2804,
      "Min": 2805,
      "Moo": 2806,
      "Mot": 2807,
      "Mos": 2808,
      "Mill": 2809,
      "Muff": 2810,
      "Nich": 2811,
      "Nav": 2812,
      "Oh": 2813,
      "Oat": 2814,
      "Orange": 2815,
      "Pal": 2816,
      "Pac": 2817,
      "Pur": 2818,
      "Pop": 2819,
      "Pul": 2820,
      "Poll": 2821,
      "Peach": 2822,
      "Rome": 2823,
      "Roll": 2824,
      "Rasc": 2825,
      "Sal": 2826,
      "Sto": 2827,
      "Str": 2828,
      "Scar": 2829,
      "Side": 2830,
      "Sinn": 2831,
      "Ty": 2832,
      "Tre": 2833,
      "Time": 2834,
      "Ur": 2835,
      "Ven": 2836,
      "Vent": 2837,
      "Yellow": 2838,
      "bow": 2839,
      "bank": 2840,
      "baking": 2841,
      "cel": 2842,
      "cum": 2843,
      "corn": 2844,
      "cock": 2845,
      "cali": 2846,
      "citiz": 2847,
      "ding": 2848,
      "dest": 2849,
      "dim": 2850,
      "draft": 2851,
      "fare": 2852,
      "fell": 2853,
      "fail": 2854,
      "fung": 2855,
      "fuel": 2856,
      "flies": 2857,
      "fiction": 2858,
      "gam": 2859,
      "gur": 2860,
      "hat": 2861,
      "hal": 2862,
      "hab": 2863,
      "hum": 2864,
      "hors": 2865,
      "hockey": 2866,
      "ield": 2867,
      "lat": 2868,
      "lan": 2869,
      "lvan": 2870,
      "mir": 2871,
      "mad": 2872,
      "mine": 2873,
      "material": 2874,
      "nation": 2875,
      "nations": 2876,
      "oce": 2877,
      "pel": 2878,
      "pri": 2879,
      "pass": 2880,
      "pound": 2881,
      "poll": 2882,
      "qig": 2883,
      "ral": 2884,
      "ride": 2885,
      "rounds": 2886,
      "ronym": 2887,
      "sis": 2888,
      "sor": 2889,
      "swe": 2890,
      "sink": 2891,
      "scient": 2892,
      "source": 2893,
      "ti": 2894,
      "tip": 2895,
      "talk": 2896,
      "ube": 2897,
      "udy": 2898,
      "vit": 2899,
      "vation": 2900,
      "vot": 2901,
      "yd": 2902,
      "zo": 2903,
      "zen": 2904,
      "atic": 2905,
      "atible": 2906,
      "these": 2907,
      "theme": 2908,
      "theory": 2909,
      "inf": 2910,
      "ino": 2911,
      "inv": 2912,
      "iny": 2913,
      "inet": 2914,
      "ane": 2915,
      "anut": 2916,
      "isto": 2917,
      "erate": 2918,
      "repl": 2919,
      "reign": 2920,
      "research": 2921,
      "onoun": 2922,
      "army": 2923,
      "offe": 2924,
      "ases": 2925,
      "aspo": 2926,
      "enh": 2927,
      "enix": 2928,
      "engin": 2929,
      "ences": 2930,
      "aling": 2931,
      "alth": 2932,
      "ality": 2933,
      "along": 2934,
      "alco": 2935,
      "ouds": 2936,
      "sty": 2937,
      "ston": 2938,
      "still": 2939,
      "stance": 2940,
      "stamp": 2941,
      "stations": 2942,
      "itar": 2943,
      "icy": 2944,
      "ama": 2945,
      "leave": 2946,
      "oma": 2947,
      "ometer": 2948,
      "too": 2949,
      "tos": 2950,
      "toll": 2951,
      "olas": 2952,
      "olfe": 2953,
      "acet": 2954,
      "acronym": 2955,
      "ilities": 2956,
      "think": 2957,
      "thunder": 2958,
      "ente": 2959,
      "ford": 2960,
      "elo": 2961,
      "iro": 2962,
      "ads": 2963,
      "adcast": 2964,
      "rot": 2965,
      "chain": 2966,
      "chron": 2967,
      "chapter": 2968,
      "territ": 2969,
      "sem": 2970,
      "seum": 2971,
      "separ": 2972,
      "secut": 2973,
      "tri": 2974,
      "ura": 2975,
      "beat": 2976,
      "apart": 2977,
      "appoint": 2978,
      "teen": 2979,
      "teaspo": 2980,
      "divid": 2981,
      "direction": 2982,
      "cember": 2983,
      "plastic": 2984,
      "universe": 2985,
      "abol": 2986,
      "ctic": 2987,
      "cture": 2988,
      "peak": 2989,
      "lif": 2990,
      "liver": 2991,
      "dec": 2992,
      "deep": 2993,
      "const": 2994,
      "convict": 2995,
      "oco": 2996,
      "span": 2997,
      "spent": 2998,
      "Ind": 2999,
      "Independ": 3000,
      "Investigation": 3001,
      "shall": 3002,
      "rier": 3003,
      "ries": 3004,
      "rivers": 3005,
      "utes": 3006,
      "uture": 3007,
      "weather": 3008,
      "project": 3009,
      "quel": 3010,
      "quick": 3011,
      "boat": 3012,
      "period": 3013,
      "neur": 3014,
      "active": 3015,
      "bergh": 3016,
      "covers": 3017,
      "cogn": 3018,
      "club": 3019,
      "clouds": 3020,
      "compet": 3021,
      "compatible": 3022,
      "anta": 3023,
      "exer": 3024,
      "exact": 3025,
      "export": 3026,
      "examp": 3027,
      "outs": 3028,
      "Stan": 3029,
      "upon": 3030,
      "blen": 3031,
      "rael": 3032,
      "raham": 3033,
      "embe": 3034,
      "email": 3035,
      "endment": 3036,
      "mond": 3037,
      "monarch": 3038,
      "price": 3039,
      "pronoun": 3040,
      "itself": 3041,
      "creature": 3042,
      "creator": 3043,
      "rent": 3044,
      "brush": 3045,
      "museum": 3046,
      "izes": 3047,
      "phy": 3048,
      "phil": 3049,
      "ansas": 3050,
      "better": 3051,
      "bug": 3052,
      "ored": 3053,
      "eps": 3054,
      "chess": 3055,
      "sylvan": 3056,
      "eleven": 3057,
      "airplane": 3058,
      "apple": 3059,
      "standard": 3060,
      "starring": 3061,
      "Space": 3062,
      "corpor": 3063,
      "Argent": 3064,
      "187": 3065,
      "lose": 3066,
      "terms": 3067,
      "cker": 3068,
      "Andy": 3069,
      "Answ": 3070,
      "1960": 3071,
      "1965": 3072,
      "1967": 3073,
      "1969": 3074,
      "pted": 3075,
      "inner": 3076,
      "inning": 3077,
      "asked": 3078,
      "cru": 3079,
      "erald": 3080,
      "Seven": 3081,
      "Shir": 3082,
      "1980": 3083,
      "1989": 3084,
      "Israel": 3085,
      "Leon": 3086,
      "Colin": 3087,
      "December": 3088,
      "descri": 3089,
      "1998": 3090,
      "contest": 3091,
      "Carter": 3092,
      "Stein": 3093,
      "Stewart": 3094,
      "songs": 3095,
      "orgia": 3096,
      "III": 3097,
      "surface": 3098,
      "surrounds": 3099,
      "collect": 3100,
      "medium": 3101,
      "plants": 3102,
      "Russia": 3103,
      "Confed": 3104,
      "Mont": 3105,
      "powerful": 3106,
      "anned": 3107,
      "ological": 3108,
      "Georgia": 3109,
      "claims": 3110,
      "magic": 3111,
      "substance": 3112,
      "Moon": 3113,
      "archite": 3114,
      "directed": 3115,
      "broadcast": 3116,
      "equival": 3117,
      "commit": 3118,
      "commun": 3119,
      "tempt": 3120,
      "appearance": 3121,
      "Canadian": 3122,
      "16th": 3123,
      "operating": 3124,
      "Williams": 3125,
      "calcul": 3126,
      "calories": 3127,
      "purpose": 3128,
      "putty": 3129,
      "silver": 3130,
      "silly": 3131,
      "signed": 3132,
      "restaur": 3133,
      "1939": 3134,
      "typical": 3135,
      "Dickens": 3136,
      "Abraham": 3137,
      "hamburg": 3138,
      "parov": 3139,
      "transl": 3140,
      "January": 3141,
      "matter": 3142,
      "motion": 3143,
      "voice": 3144,
      "aches": 3145,
      "Mexican": 3146,
      "Oscars": 3147,
      "stitution": 3148,
      "tradition": 3149,
      "diameter": 3150,
      "classical": 3151,
      "growing": 3152,
      "pregnant": 3153,
      "pregnancy": 3154,
      "Desmond": 3155,
      "Garry": 3156,
      "camera": 3157,
      "giving": 3158,
      "publish": 3159,
      "published": 3160,
      "advertise": 3161,
      "Fein": 3162,
      "Luther": 3163,
      "Milky": 3164,
      "Magna": 3165,
      "Procter": 3166,
      "function": 3167,
      "troops": 3168,
      "winning": 3169,
      "question": 3170,
      "employment": 3171,
      "Butler": 3172,
      "Hamblen": 3173,
      "Republic": 3174,
      "statistics": 3175,
      "drugs": 3176,
      "detective": 3177,
      "astronauts": 3178,
      "Enter": 3179,
      "Goodall": 3180,
      "Rogers": 3181,
      "cereal": 3182,
      "drive": 3183,
      "energy": 3184,
      "occupation": 3185,
      "clothing": 3186,
      "expectancy": 3187,
      "Andrew": 3188,
      "swimming": 3189,
      "Two": 3190,
      "biography": 3191,
      "cells": 3192,
      "satell": 3193,
      "explor": 3194,
      "Carolina": 3195,
      "Carta": 3196,
      "Costner": 3197,
      "Irish": 3198,
      "Kuwa": 3199,
      "Martin": 3200,
      "Pennsylvan": 3201,
      "Ruth": 3202,
      "Senate": 3203,
      "folic": 3204,
      "mammal": 3205,
      "widely": 3206,
      "weapon": 3207,
      "photo": 3208,
      "volcano": 3209,
      "Baby": 3210,
      "CPR": 3211,
      "Gamble": 3212,
      "Justice": 3213,
      "Powell": 3214,
      "Phoenix": 3215,
      "counterpart": 3216,
      "sperm": 3217,
      "activity": 3218,
      "Stuart": 3219,
      "criminal": 3220,
      "Islamic": 3221,
      "Hollywood": 3222,
      "Philippines": 3223,
      "Academy": 3224,
      "Boxing": 3225,
      "Dikembe": 3226,
      "Kasparov": 3227,
      "Kevin": 3228,
      "Lindbergh": 3229,
      "Muffins": 3230,
      "Nicholas": 3231,
      "Navy": 3232,
      "Pacific": 3233,
      "Peachy": 3234,
      "Rascals": 3235,
      "Scarlet": 3236,
      "Ventura": 3237,
      "caliente": 3238,
      "half": 3239,
      "horses": 3240,
      "oceans": 3241,
      "qigong": 3242,
      "offee": 3243,
      "engines": 3244,
      "convicted": 3245,
      "example": 3246,
      "Answers": 3247,
      "Confederate": 3248,
      "restaurant": 3249,
      "Kuwait": 3250,
      "Pennsylvania": 3251,
      "23": 3252,
      "35": 3253,
      "42": 3254,
      "47": 3255,
      "86": 3256,
      "99": 3257,
      "Ald": 3258,
      "Act": 3259,
      "Asp": 3260,
      "Apr": 3261,
      "Aug": 3262,
      "Bu": 3263,
      "Bad": 3264,
      "Bay": 3265,
      "Bast": 3266,
      "Bomb": 3267,
      "Che": 3268,
      "Cas": 3269,
      "Cam": 3270,
      "Cop": 3271,
      "Cage": 3272,
      "Cour": 3273,
      "Cany": 3274,
      "Cob": 3275,
      "Coman": 3276,
      "Camp": 3277,
      "Cities": 3278,
      "Center": 3279,
      "Clevel": 3280,
      "DR": 3281,
      "Du": 3282,
      "Der": 3283,
      "Dar": 3284,
      "Den": 3285,
      "Dol": 3286,
      "Dak": 3287,
      "Dum": 3288,
      "Dog": 3289,
      "Dwar": 3290,
      "EE": 3291,
      "Ein": 3292,
      "Eis": 3293,
      "Eli": 3294,
      "Etern": 3295,
      "Emp": 3296,
      "Egy": 3297,
      "Fer": 3298,
      "Fed": 3299,
      "Fam": 3300,
      "Faw": 3301,
      "Flo": 3302,
      "Fiel": 3303,
      "Gand": 3304,
      "Gone": 3305,
      "Gorb": 3306,
      "Hall": 3307,
      "Hoo": 3308,
      "High": 3309,
      "Here": 3310,
      "Hav": 3311,
      "IO": 3312,
      "IQ": 3313,
      "Ile": 3314,
      "Ira": 3315,
      "Jr": 3316,
      "Jac": 3317,
      "Jud": 3318,
      "Jones": 3319,
      "Lar": 3320,
      "Led": 3321,
      "Lion": 3322,
      "Long": 3323,
      "Live": 3324,
      "Life": 3325,
      "Lord": 3326,
      "Lyn": 3327,
      "Logan": 3328,
      "MO": 3329,
      "Mu": 3330,
      "Mau": 3331,
      "Muse": 3332,
      "Minn": 3333,
      "Master": 3334,
      "NB": 3335,
      "Ni": 3336,
      "Nad": 3337,
      "Ou": 3338,
      "Oz": 3339,
      "Osw": 3340,
      "Pet": 3341,
      "Pres": 3342,
      "Poo": 3343,
      "Part": 3344,
      "Pok": 3345,
      "Post": 3346,
      "Pole": 3347,
      "Qu": 3348,
      "Ron": 3349,
      "Ren": 3350,
      "Rad": 3351,
      "Roy": 3352,
      "Rose": 3353,
      "SA": 3354,
      "SD": 3355,
      "Sar": 3356,
      "Sul": 3357,
      "Sun": 3358,
      "Sher": 3359,
      "Summer": 3360,
      "Santa": 3361,
      "TM": 3362,
      "Te": 3363,
      "Ter": 3364,
      "Ted": 3365,
      "Tur": 3366,
      "Tut": 3367,
      "Tra": 3368,
      "Ut": 3369,
      "Vi": 3370,
      "Vin": 3371,
      "Will": 3372,
      "Winn": 3373,
      "Wolfe": 3374,
      "Year": 3375,
      "Zep": 3376,
      "bi": 3377,
      "bin": 3378,
      "ban": 3379,
      "bes": 3380,
      "bal": 3381,
      "boo": 3382,
      "batt": 3383,
      "bones": 3384,
      "bought": 3385,
      "bib": 3386,
      "banned": 3387,
      "crit": 3388,
      "cise": 3389,
      "coup": 3390,
      "camp": 3391,
      "catch": 3392,
      "cope": 3393,
      "coffee": 3394,
      "dat": 3395,
      "din": 3396,
      "dar": 3397,
      "ders": 3398,
      "dry": 3399,
      "dream": 3400,
      "dinner": 3401,
      "eight": 3402,
      "eff": 3403,
      "eci": 3404,
      "fres": 3405,
      "fath": 3406,
      "frequ": 3407,
      "future": 3408,
      "ges": 3409,
      "gives": 3410,
      "hr": 3411,
      "har": 3412,
      "hind": 3413,
      "iff": 3414,
      "iform": 3415,
      "iju": 3416,
      "jer": 3417,
      "jail": 3418,
      "job": 3419,
      "jockey": 3420,
      "kl": 3421,
      "ken": 3422,
      "kiss": 3423,
      "lon": 3424,
      "las": 3425,
      "lap": 3426,
      "lav": 3427,
      "link": 3428,
      "latch": 3429,
      "lished": 3430,
      "map": 3431,
      "meter": 3432,
      "match": 3433,
      "mology": 3434,
      "nes": 3435,
      "nic": 3436,
      "nold": 3437,
      "nature": 3438,
      "native": 3439,
      "ois": 3440,
      "oid": 3441,
      "ores": 3442,
      "pin": 3443,
      "pay": 3444,
      "past": 3445,
      "press": 3446,
      "penn": 3447,
      "pred": 3448,
      "park": 3449,
      "rab": 3450,
      "rub": 3451,
      "rise": 3452,
      "rican": 3453,
      "sof": 3454,
      "sau": 3455,
      "sang": 3456,
      "sens": 3457,
      "south": 3458,
      "sod": 3459,
      "soup": 3460,
      "sci": 3461,
      "scul": 3462,
      "sank": 3463,
      "sides": 3464,
      "ta": 3465,
      "tic": 3466,
      "ture": 3467,
      "takes": 3468,
      "trees": 3469,
      "tiger": 3470,
      "ued": 3471,
      "vine": 3472,
      "vill": 3473,
      "vial": 3474,
      "ww": 3475,
      "whe": 3476,
      "wan": 3477,
      "wre": 3478,
      "want": 3479,
      "wise": 3480,
      "wives": 3481,
      "yellow": 3482,
      "zip": 3483,
      "hedr": 3484,
      "helang": 3485,
      "atives": 3486,
      "atric": 3487,
      "ately": 3488,
      "Whom": 3489,
      "thes": 3490,
      "theast": 3491,
      "infe": 3492,
      "inary": 3493,
      "inau": 3494,
      "infect": 3495,
      "independ": 3496,
      "isk": 3497,
      "ery": 3498,
      "rey": 3499,
      "reci": 3500,
      "return": 3501,
      "remain": 3502,
      "reactivity": 3503,
      "onor": 3504,
      "orado": 3505,
      "orange": 3506,
      "esota": 3507,
      "ari": 3508,
      "aries": 3509,
      "armed": 3510,
      "aler": 3511,
      "altern": 3512,
      "editor": 3513,
      "oward": 3514,
      "stre": 3515,
      "stro": 3516,
      "stole": 3517,
      "itcom": 3518,
      "icts": 3519,
      "ami": 3520,
      "amin": 3521,
      "omy": 3522,
      "doing": 3523,
      "doctor": 3524,
      "idency": 3525,
      "toy": 3526,
      "today": 3527,
      "inger": 3528,
      "ingway": 3529,
      "Howard": 3530,
      "olar": 3531,
      "acher": 3532,
      "iles": 3533,
      "illi": 3534,
      "thod": 3535,
      "fort": 3536,
      "force": 3537,
      "forces": 3538,
      "forced": 3539,
      "aren": 3540,
      "elite": 3541,
      "mann": 3542,
      "ada": 3543,
      "adium": 3544,
      "root": 3545,
      "chanc": 3546,
      "church": 3547,
      "igan": 3548,
      "iggy": 3549,
      "tered": 3550,
      "alls": 3551,
      "sees": 3552,
      "seap": 3553,
      "tran": 3554,
      "trub": 3555,
      "tried": 3556,
      "ounty": 3557,
      "urer": 3558,
      "urance": 3559,
      "beck": 3560,
      "becoming": 3561,
      "behind": 3562,
      "iment": 3563,
      "impor": 3564,
      "opia": 3565,
      "very": 3566,
      "moder": 3567,
      "model": 3568,
      "agon": 3569,
      "apples": 3570,
      "earn": 3571,
      "resent": 3572,
      "text": 3573,
      "div": 3574,
      "dium": 3575,
      "ceed": 3576,
      "19th": 3577,
      "unaccoun": 3578,
      "unemployment": 3579,
      "uniform": 3580,
      "abilities": 3581,
      "liest": 3582,
      "libr": 3583,
      "umbus": 3584,
      "aint": 3585,
      "firm": 3586,
      "deb": 3587,
      "dev": 3588,
      "dew": 3589,
      "defect": 3590,
      "dealt": 3591,
      "constru": 3592,
      "consecut": 3593,
      "spell": 3594,
      "sphere": 3595,
      "meat": 3596,
      "method": 3597,
      "feat": 3598,
      "Institute": 3599,
      "shape": 3600,
      "uttle": 3601,
      "haw": 3602,
      "hail": 3603,
      "oss": 3604,
      "osum": 3605,
      "probab": 3606,
      "ief": 3607,
      "quit": 3608,
      "perpet": 3609,
      "callosum": 3610,
      "neuro": 3611,
      "next": 3612,
      "acted": 3613,
      "owned": 3614,
      "geant": 3615,
      "geese": 3616,
      "geograph": 3617,
      "clim": 3618,
      "Chap": 3619,
      "Chile": 3620,
      "Church": 3621,
      "gran": 3622,
      "outside": 3623,
      "Stat": 3624,
      "Story": 3625,
      "ellor": 3626,
      "playing": 3627,
      "bled": 3628,
      "blind": 3629,
      "raise": 3630,
      "associ": 3631,
      "assador": 3632,
      "emper": 3633,
      "emark": 3634,
      "ights": 3635,
      "vely": 3636,
      "longitude": 3637,
      "tware": 3638,
      "pract": 3639,
      "print": 3640,
      "prise": 3641,
      "iving": 3642,
      "iple": 3643,
      "render": 3644,
      "ventures": 3645,
      "brought": 3646,
      "bruary": 3647,
      "carbon": 3648,
      "carries": 3649,
      "pox": 3650,
      "poison": 3651,
      "izza": 3652,
      "aves": 3653,
      "Nev": 3654,
      "Neil": 3655,
      "anged": 3656,
      "flu": 3657,
      "flows": 3658,
      "formula": 3659,
      "colorful": 3660,
      "disc": 3661,
      "display": 3662,
      "orning": 3663,
      "enna": 3664,
      "ennes": 3665,
      "Mark": 3666,
      "Marx": 3667,
      "myth": 3668,
      "whose": 3669,
      "tsburgh": 3670,
      "Alice": 3671,
      "Alley": 3672,
      "cork": 3673,
      "cords": 3674,
      "athlet": 3675,
      "ensive": 3676,
      "bury": 3677,
      "something": 3678,
      "viol": 3679,
      "offer": 3680,
      "worked": 3681,
      "sings": 3682,
      "cycl": 3683,
      "minutes": 3684,
      "Seattle": 3685,
      "Secret": 3686,
      "odor": 3687,
      "odds": 3688,
      "1981": 3689,
      "production": 3690,
      "cious": 3691,
      "speak": 3692,
      "dogs": 3693,
      "Colorado": 3694,
      "Columbus": 3695,
      "Dead": 3696,
      "Define": 3697,
      "killer": 3698,
      "1990": 3699,
      "Beaut": 3700,
      "soap": 3701,
      "sodium": 3702,
      "steam": 3703,
      "such": 3704,
      "surge": 3705,
      "surrender": 3706,
      "1972": 3707,
      "1975": 3708,
      "1978": 3709,
      "spacecraft": 3710,
      "painter": 3711,
      "planted": 3712,
      "Commit": 3713,
      "mountains": 3714,
      "1950": 3715,
      "1953": 3716,
      "1956": 3717,
      "1957": 3718,
      "Days": 3719,
      "ahoo": 3720,
      "poly": 3721,
      "policy": 3722,
      "ships": 3723,
      "boys": 3724,
      "Blue": 3725,
      "Conference": 3726,
      "Edward": 3727,
      "Edgar": 3728,
      "Edmund": 3729,
      "egg": 3730,
      "forest": 3731,
      "Prin": 3732,
      "happens": 3733,
      "magnet": 3734,
      "north": 3735,
      "normal": 3736,
      "livan": 3737,
      "grapher": 3738,
      "legal": 3739,
      "legend": 3740,
      "1940": 3741,
      "1942": 3742,
      "Angl": 3743,
      "borders": 3744,
      "ification": 3745,
      "Shel": 3746,
      "presidency": 3747,
      "skin": 3748,
      "sales": 3749,
      "gymn": 3750,
      "Brothers": 3751,
      "backs": 3752,
      "sells": 3753,
      "businesses": 3754,
      "earthqu": 3755,
      "assassination": 3756,
      "assassinate": 3757,
      "chemicals": 3758,
      "golfer": 3759,
      "rainbow": 3760,
      "regard": 3761,
      "contract": 3762,
      "cartoons": 3763,
      "Superman": 3764,
      "meters": 3765,
      "stripes": 3766,
      "Jeff": 3767,
      "racy": 3768,
      "tournam": 3769,
      "interest": 3770,
      "alta": 3771,
      "Michelang": 3772,
      "achev": 3773,
      "manufactured": 3774,
      "boxer": 3775,
      "boxing": 3776,
      "Council": 3777,
      "Play": 3778,
      "distin": 3779,
      "guitar": 3780,
      "support": 3781,
      "value": 3782,
      "ambassador": 3783,
      "sexual": 3784,
      "trademark": 3785,
      "Michigan": 3786,
      "Windows": 3787,
      "Windsor": 3788,
      "drop": 3789,
      "holid": 3790,
      "holds": 3791,
      "lowest": 3792,
      "network": 3793,
      "empire": 3794,
      "Allen": 3795,
      "Davis": 3796,
      "David": 3797,
      "February": 3798,
      "Medal": 3799,
      "Trist": 3800,
      "hijack": 3801,
      "social": 3802,
      "smallest": 3803,
      "prophet": 3804,
      "closest": 3805,
      "Louisiana": 3806,
      "Butter": 3807,
      "Cotrub": 3808,
      "Maryland": 3809,
      "Represent": 3810,
      "finger": 3811,
      "receive": 3812,
      "require": 3813,
      "revolution": 3814,
      "royal": 3815,
      "trials": 3816,
      "literature": 3817,
      "Romans": 3818,
      "Roger": 3819,
      "Samuel": 3820,
      "Web": 3821,
      "battery": 3822,
      "cosmology": 3823,
      "federal": 3824,
      "micro": 3825,
      "vacc": 3826,
      "occupy": 3827,
      "possession": 3828,
      "Scotland": 3829,
      "professional": 3830,
      "included": 3831,
      "Everest": 3832,
      "Jersey": 3833,
      "Poe": 3834,
      "Society": 3835,
      "Victoria": 3836,
      "determin": 3837,
      "target": 3838,
      "hearing": 3839,
      "released": 3840,
      "storm": 3841,
      "chairman": 3842,
      "secretary": 3843,
      "establish": 3844,
      "established": 3845,
      "flowers": 3846,
      "Company": 3847,
      "Billy": 3848,
      "Clark": 3849,
      "Doody": 3850,
      "July": 3851,
      "Trivial": 3852,
      "Younis": 3853,
      "economic": 3854,
      "potlatch": 3855,
      "young": 3856,
      "executed": 3857,
      "credit": 3858,
      "hydrogen": 3859,
      "Hawaii": 3860,
      "Virginia": 3861,
      "eruption": 3862,
      "Emperor": 3863,
      "Forest": 3864,
      "Napole": 3865,
      "Pittsburgh": 3866,
      "School": 3867,
      "double": 3868,
      "dictator": 3869,
      "safe": 3870,
      "involved": 3871,
      "education": 3872,
      "third": 3873,
      "vegetable": 3874,
      "important": 3875,
      "technique": 3876,
      "unnel": 3877,
      "province": 3878,
      "primary": 3879,
      "Beatles": 3880,
      "purchase": 3881,
      "championship": 3882,
      "domesticated": 3883,
      "Babe": 3884,
      "Buffalo": 3885,
      "Hearst": 3886,
      "Hemingway": 3887,
      "Ohio": 3888,
      "Pursuit": 3889,
      "Popeye": 3890,
      "Pulitzer": 3891,
      "Pollock": 3892,
      "citizen": 3893,
      "failure": 3894,
      "fungal": 3895,
      "latitude": 3896,
      "pelin": 3897,
      "enhower": 3898,
      "alcohol": 3899,
      "style": 3900,
      "teaspoon": 3901,
      "exercise": 3902,
      "exactly": 3903,
      "Shirley": 3904,
      "Steinbeck": 3905,
      "equivalent": 3906,
      "hamburger": 3907,
      "Enterprise": 3908,
      "Scarlett": 3909,
      "August": 3910,
      "Bastille": 3911,
      "Canyon": 3912,
      "Comaneci": 3913,
      "Cleveland": 3914,
      "Derby": 3915,
      "Dakota": 3916,
      "Dogtown": 3917,
      "Einstein": 3918,
      "Eisenhower": 3919,
      "Eternity": 3920,
      "Empire": 3921,
      "Egypt": 3922,
      "Federal": 3923,
      "Fawaz": 3924,
      "Fields": 3925,
      "Gandhi": 3926,
      "Gorbachev": 3927,
      "Ileana": 3928,
      "Iraq": 3929,
      "Larry": 3930,
      "Museum": 3931,
      "Minnesota": 3932,
      "Nadia": 3933,
      "Oswald": 3934,
      "Pooh": 3935,
      "Radio": 3936,
      "Sullivan": 3937,
      "Utah": 3938,
      "Winnie": 3939,
      "Zeppelin": 3940,
      "battles": 3941,
      "bibli": 3942,
      "effici": 3943,
      "fathom": 3944,
      "ijuana": 3945,
      "penned": 3946,
      "ricane": 3947,
      "software": 3948,
      "soda": 3949,
      "sculpt": 3950,
      "hedral": 3951,
      "infection": 3952,
      "inaugur": 3953,
      "infectious": 3954,
      "seaport": 3955,
      "unaccounted": 3956,
      "defects": 3957,
      "probability": 3958,
      "associated": 3959,
      "Beauty": 3960,
      "Committee": 3961,
      "Michelangelo": 3962,
      "Cotrubas": 3963,
      "2th": 3964,
      "32": 3965,
      "40": 3966,
      "48": 3967,
      "500": 3968,
      "6th": 3969,
      "AM": 3970,
      "Au": 3971,
      "Ali": 3972,
      "Austri": 3973,
      "BP": 3974,
      "Bre": 3975,
      "Bol": 3976,
      "Bac": 3977,
      "Ball": 3978,
      "Bag": 3979,
      "Back": 3980,
      "Bell": 3981,
      "Bog": 3982,
      "Bost": 3983,
      "Baker": 3984,
      "CA": 3985,
      "CC": 3986,
      "CR": 3987,
      "Cou": 3988,
      "Coc": 3989,
      "Cup": 3990,
      "Come": 3991,
      "Case": 3992,
      "Cree": 3993,
      "Cub": 3994,
      "Dw": 3995,
      "Dy": 3996,
      "Dow": 3997,
      "Dam": 3998,
      "Darth": 3999,
      "Drac": 4000,
      "Drew": 4001,
      "Dumpty": 4002,
      "ES": 4003,
      "Ew": 4004,
      "Ell": 4005,
      "Easter": 4006,
      "FT": 4007,
      "Fal": 4008,
      "Fest": 4009,
      "Found": 4010,
      "Free": 4011,
      "Fair": 4012,
      "Fox": 4013,
      "Fitz": 4014,
      "Fifth": 4015,
      "Finger": 4016,
      "Falls": 4017,
      "Gal": 4018,
      "Gil": 4019,
      "Gour": 4020,
      "Gog": 4021,
      "Gates": 4022,
      "Gover": 4023,
      "Gulf": 4024,
      "HL": 4025,
      "Ha": 4026,
      "Hu": 4027,
      "Hand": 4028,
      "Hus": 4029,
      "Hul": 4030,
      "Hone": 4031,
      "Hass": 4032,
      "Home": 4033,
      "Hust": 4034,
      "Hank": 4035,
      "Humpty": 4036,
      "Il": 4037,
      "Im": 4038,
      "Iron": 4039,
      "Jam": 4040,
      "Jol": 4041,
      "Jung": 4042,
      "June": 4043,
      "Kin": 4044,
      "Kon": 4045,
      "Kar": 4046,
      "Kind": 4047,
      "Kos": 4048,
      "Kath": 4049,
      "Kansas": 4050,
      "LA": 4051,
      "LO": 4052,
      "Lac": 4053,
      "Let": 4054,
      "Last": 4055,
      "Laugh": 4056,
      "Lady": 4057,
      "Laine": 4058,
      "Living": 4059,
      "Mi": 4060,
      "Ms": 4061,
      "Met": 4062,
      "Mack": 4063,
      "Maid": 4064,
      "Mod": 4065,
      "Mouse": 4066,
      "Mik": 4067,
      "Nam": 4068,
      "Not": 4069,
      "Nile": 4070,
      "Nations": 4071,
      "Nino": 4072,
      "NHL": 4073,
      "Our": 4074,
      "Okl": 4075,
      "Pers": 4076,
      "Pass": 4077,
      "Prew": 4078,
      "Pearl": 4079,
      "RL": 4080,
      "Res": 4081,
      "Row": 4082,
      "Roc": 4083,
      "Rot": 4084,
      "Rail": 4085,
      "Rho": 4086,
      "Rider": 4087,
      "Sic": 4088,
      "Sol": 4089,
      "Sir": 4090,
      "Smo": 4091,
      "Spe": 4092,
      "Sup": 4093,
      "Spr": 4094,
      "Sep": 4095,
      "Sadd": 4096,
      "Salt": 4097,
      "Sky": 4098,
      "Southern": 4099,
      "Smith": 4100,
      "Scrab": 4101,
      "Saint": 4102,
      "Tol": 4103,
      "Tro": 4104,
      "Tay": 4105,
      "Tale": 4106,
      "Times": 4107,
      "Trip": 4108,
      "Tai": 4109,
      "Temp": 4110,
      "Trail": 4111,
      "Tennes": 4112,
      "Tracy": 4113,
      "UN": 4114,
      "Ver": 4115,
      "Vad": 4116,
      "Vik": 4117,
      "Win": 4118,
      "Wal": 4119,
      "Wiz": 4120,
      "Wild": 4121,
      "Wink": 4122,
      "Winter": 4123,
      "Yahoo": 4124,
      "Yalta": 4125,
      "Ze": 4126,
      "ZIP": 4127,
      "aith": 4128,
      "aire": 4129,
      "bb": 4130,
      "bs": 4131,
      "bas": 4132,
      "bing": 4133,
      "bad": 4134,
      "bay": 4135,
      "bra": 4136,
      "bound": 4137,
      "bond": 4138,
      "c2": 4139,
      "cate": 4140,
      "cous": 4141,
      "case": 4142,
      "cran": 4143,
      "cable": 4144,
      "clip": 4145,
      "dent": 4146,
      "dum": 4147,
      "dime": 4148,
      "drel": 4149,
      "eu": 4150,
      "ean": 4151,
      "een": 4152,
      "east": 4153,
      "fan": 4154,
      "fit": 4155,
      "fus": 4156,
      "fans": 4157,
      "fair": 4158,
      "fax": 4159,
      "fox": 4160,
      "fifth": 4161,
      "gle": 4162,
      "gro": 4163,
      "gay": 4164,
      "gang": 4165,
      "glit": 4166,
      "gium": 4167,
      "greet": 4168,
      "gulf": 4169,
      "gerald": 4170,
      "hate": 4171,
      "hip": 4172,
      "horn": 4173,
      "ij": 4174,
      "ios": 4175,
      "ilet": 4176,
      "ibut": 4177,
      "ively": 4178,
      "jac": 4179,
      "jud": 4180,
      "ker": 4181,
      "kes": 4182,
      "lion": 4183,
      "lot": 4184,
      "lack": 4185,
      "lice": 4186,
      "lens": 4187,
      "lung": 4188,
      "lunch": 4189,
      "loss": 4190,
      "mac": 4191,
      "mig": 4192,
      "mers": 4193,
      "mind": 4194,
      "mut": 4195,
      "mess": 4196,
      "mass": 4197,
      "mier": 4198,
      "mstrong": 4199,
      "morning": 4200,
      "mc2": 4201,
      "nan": 4202,
      "nar": 4203,
      "nav": 4204,
      "naut": 4205,
      "nitz": 4206,
      "nomin": 4207,
      "oe": 4208,
      "ode": 4209,
      "oke": 4210,
      "oste": 4211,
      "ovo": 4212,
      "ography": 4213,
      "ping": 4214,
      "pse": 4215,
      "pul": 4216,
      "pine": 4217,
      "pie": 4218,
      "pick": 4219,
      "pink": 4220,
      "pins": 4221,
      "path": 4222,
      "phere": 4223,
      "penny": 4224,
      "pearl": 4225,
      "piano": 4226,
      "pizza": 4227,
      "rd": 4228,
      "rare": 4229,
      "ration": 4230,
      "rick": 4231,
      "rust": 4232,
      "rison": 4233,
      "sus": 4234,
      "spl": 4235,
      "scoun": 4236,
      "sort": 4237,
      "send": 4238,
      "saf": 4239,
      "save": 4240,
      "sburg": 4241,
      "self": 4242,
      "summer": 4243,
      "tin": 4244,
      "tre": 4245,
      "tes": 4246,
      "tong": 4247,
      "tie": 4248,
      "torn": 4249,
      "tale": 4250,
      "tual": 4251,
      "ticket": 4252,
      "toward": 4253,
      "uate": 4254,
      "uce": 4255,
      "uum": 4256,
      "uge": 4257,
      "uits": 4258,
      "uals": 4259,
      "uctor": 4260,
      "vs": 4261,
      "vin": 4262,
      "vies": 4263,
      "vard": 4264,
      "vant": 4265,
      "vess": 4266,
      "viv": 4267,
      "ville": 4268,
      "wit": 4269,
      "west": 4270,
      "wild": 4271,
      "wave": 4272,
      "wrest": 4273,
      "witch": 4274,
      "ximate": 4275,
      "ything": 4276,
      "zz": 4277,
      "zie": 4278,
      "zero": 4279,
      "hem": 4280,
      "heli": 4281,
      "hemat": 4282,
      "health": 4283,
      "atom": 4284,
      "atter": 4285,
      "atra": 4286,
      "atory": 4287,
      "thel": 4288,
      "inj": 4289,
      "init": 4290,
      "inated": 4291,
      "incre": 4292,
      "infamous": 4293,
      "inste": 4294,
      "anal": 4295,
      "ante": 4296,
      "anie": 4297,
      "ises": 4298,
      "ised": 4299,
      "istr": 4300,
      "isphere": 4301,
      "erran": 4302,
      "rear": 4303,
      "remo": 4304,
      "redi": 4305,
      "repe": 4306,
      "reli": 4307,
      "recent": 4308,
      "recomm": 4309,
      "refer": 4310,
      "recogn": 4311,
      "records": 4312,
      "oned": 4313,
      "onic": 4314,
      "ori": 4315,
      "oris": 4316,
      "orce": 4317,
      "esis": 4318,
      "ester": 4319,
      "aro": 4320,
      "assem": 4321,
      "ening": 4322,
      "ense": 4323,
      "alog": 4324,
      "ouri": 4325,
      "stain": 4326,
      "stri": 4327,
      "stage": 4328,
      "stra": 4329,
      "stones": 4330,
      "stret": 4331,
      "staff": 4332,
      "study": 4333,
      "steps": 4334,
      "itt": 4335,
      "itive": 4336,
      "itary": 4337,
      "iterran": 4338,
      "icle": 4339,
      "ication": 4340,
      "ician": 4341,
      "ammy": 4342,
      "lect": 4343,
      "leans": 4344,
      "oms": 4345,
      "omat": 4346,
      "dots": 4347,
      "toilet": 4348,
      "ingredi": 4349,
      "Howdy": 4350,
      "andle": 4351,
      "ola": 4352,
      "olig": 4353,
      "acc": 4354,
      "aco": 4355,
      "acre": 4356,
      "access": 4357,
      "accord": 4358,
      "iling": 4359,
      "illy": 4360,
      "things": 4361,
      "thony": 4362,
      "those": 4363,
      "ented": 4364,
      "entire": 4365,
      "ioned": 4366,
      "etc": 4367,
      "etr": 4368,
      "ette": 4369,
      "etics": 4370,
      "elic": 4371,
      "iron": 4372,
      "manned": 4373,
      "manager": 4374,
      "maneu": 4375,
      "admit": 4376,
      "chant": 4377,
      "chlor": 4378,
      "chrom": 4379,
      "ayer": 4380,
      "sein": 4381,
      "sever": 4382,
      "seph": 4383,
      "seized": 4384,
      "sequel": 4385,
      "select": 4386,
      "trag": 4387,
      "trade": 4388,
      "trict": 4389,
      "vember": 4390,
      "commo": 4391,
      "combat": 4392,
      "bees": 4393,
      "beth": 4394,
      "imo": 4395,
      "imag": 4396,
      "opens": 4397,
      "oppos": 4398,
      "usually": 4399,
      "mocr": 4400,
      "mosqu": 4401,
      "movies": 4402,
      "agan": 4403,
      "aged": 4404,
      "aging": 4405,
      "agent": 4406,
      "apy": 4407,
      "approp": 4408,
      "resul": 4409,
      "tea": 4410,
      "temp": 4411,
      "tember": 4412,
      "diac": 4413,
      "dible": 4414,
      "division": 4415,
      "diabet": 4416,
      "ulate": 4417,
      "worst": 4418,
      "worms": 4419,
      "cept": 4420,
      "aken": 4421,
      "unched": 4422,
      "abel": 4423,
      "ables": 4424,
      "ability": 4425,
      "ablan": 4426,
      "ctors": 4427,
      "peace": 4428,
      "peanut": 4429,
      "lips": 4430,
      "liberty": 4431,
      "dem": 4432,
      "dez": 4433,
      "deer": 4434,
      "front": 4435,
      "cane": 4436,
      "cans": 4437,
      "canal": 4438,
      "conne": 4439,
      "conser": 4440,
      "concer": 4441,
      "contempt": 4442,
      "count": 4443,
      "lying": 4444,
      "lyss": 4445,
      "spy": 4446,
      "spir": 4447,
      "spill": 4448,
      "spaw": 4449,
      "spend": 4450,
      "feud": 4451,
      "Inc": 4452,
      "Incre": 4453,
      "arts": 4454,
      "artame": 4455,
      "shop": 4456,
      "shuttle": 4457,
      "shoe": 4458,
      "Theo": 4459,
      "haz": 4460,
      "weak": 4461,
      "osaur": 4462,
      "oscope": 4463,
      "oslav": 4464,
      "illed": 4465,
      "illing": 4466,
      "proper": 4467,
      "proble": 4468,
      "provid": 4469,
      "propert": 4470,
      "quer": 4471,
      "ques": 4472,
      "quai": 4473,
      "boil": 4474,
      "colog": 4475,
      "colony": 4476,
      "perform": 4477,
      "performer": 4478,
      "nee": 4479,
      "actually": 4480,
      "owner": 4481,
      "coin": 4482,
      "coal": 4483,
      "cool": 4484,
      "arden": 4485,
      "Americas": 4486,
      "clown": 4487,
      "worldwide": 4488,
      "compared": 4489,
      "gray": 4490,
      "graced": 4491,
      "excl": 4492,
      "exchange": 4493,
      "outcome": 4494,
      "Stal": 4495,
      "Stage": 4496,
      "Stadium": 4497,
      "aware": 4498,
      "identity": 4499,
      "ellation": 4500,
      "erected": 4501,
      "essor": 4502,
      "landed": 4503,
      "landmark": 4504,
      "raid": 4505,
      "gestation": 4506,
      "mentioned": 4507,
      "vels": 4508,
      "endar": 4509,
      "ffalo": 4510,
      "mont": 4511,
      "mony": 4512,
      "monster": 4513,
      "ivia": 4514,
      "therapy": 4515,
      "ipment": 4516,
      "renia": 4517,
      "braska": 4518,
      "carry": 4519,
      "ifer": 4520,
      "aud": 4521,
      "audi": 4522,
      "izing": 4523,
      "aven": 4524,
      "phys": 4525,
      "phrey": 4526,
      "Nebraska": 4527,
      "anges": 4528,
      "angle": 4529,
      "flavor": 4530,
      "gods": 4531,
      "Joe": 4532,
      "Joan": 4533,
      "Joseph": 4534,
      "bust": 4535,
      "buffalo": 4536,
      "format": 4537,
      "idea": 4538,
      "epic": 4539,
      "disk": 4540,
      "rymore": 4541,
      "check": 4542,
      "sym": 4543,
      "struck": 4544,
      "populated": 4545,
      "airline": 4546,
      "marijuana": 4547,
      "nose": 4548,
      "inventor": 4549,
      "Marc": 4550,
      "Maria": 4551,
      "Marley": 4552,
      "myster": 4553,
      "issue": 4554,
      "draw": 4555,
      "drome": 4556,
      "drunk": 4557,
      "ocks": 4558,
      "partic": 4559,
      "verses": 4560,
      "version": 4561,
      "versmith": 4562,
      "Albert": 4563,
      "Alger": 4564,
      "insula": 4565,
      "insurance": 4566,
      "kinds": 4567,
      "serving": 4568,
      "service": 4569,
      "sergeant": 4570,
      "Ark": 4571,
      "Arab": 4572,
      "Around": 4573,
      "Arctic": 4574,
      "Arnold": 4575,
      "Armstrong": 4576,
      "charge": 4577,
      "athan": 4578,
      "ensions": 4579,
      "fix": 4580,
      "fired": 4581,
      "186": 4582,
      "188": 4583,
      "burned": 4584,
      "captain": 4585,
      "capita": 4586,
      "icted": 4587,
      "onders": 4588,
      "hoolig": 4589,
      "notes": 4590,
      "Ant": 4591,
      "Anthony": 4592,
      "1966": 4593,
      "1968": 4594,
      "break": 4595,
      "crick": 4596,
      "tons": 4597,
      "news": 4598,
      "teams": 4599,
      "topher": 4600,
      "Three": 4601,
      "Thank": 4602,
      "hyper": 4603,
      "hymn": 4604,
      "shows": 4605,
      "Lew": 4606,
      "Cola": 4607,
      "Death": 4608,
      "Degas": 4609,
      "Democr": 4610,
      "military": 4611,
      "others": 4612,
      "premier": 4613,
      "1992": 4614,
      "1993": 4615,
      "1999": 4616,
      "Beach": 4617,
      "founder": 4618,
      "linois": 4619,
      "Brand": 4620,
      "Brad": 4621,
      "Stephen": 4622,
      "Wilson": 4623,
      "fourth": 4624,
      "poses": 4625,
      "novelist": 4626,
      "steal": 4627,
      "birthplace": 4628,
      "suffer": 4629,
      "saying": 4630,
      "busiest": 4631,
      "tural": 4632,
      "turkey": 4633,
      "throw": 4634,
      "1971": 4635,
      "1973": 4636,
      "1974": 4637,
      "foods": 4638,
      "headed": 4639,
      "iversary": 4640,
      "1952": 4641,
      "drinking": 4642,
      "ahoma": 4643,
      "axy": 4644,
      "jection": 4645,
      "polio": 4646,
      "personality": 4647,
      "running": 4648,
      "thank": 4649,
      "Conrad": 4650,
      "Constitution": 4651,
      "oxide": 4652,
      "anna": 4653,
      "announ": 4654,
      "anniversary": 4655,
      "alker": 4656,
      "starts": 4657,
      "starting": 4658,
      "relative": 4659,
      "Jackie": 4660,
      "Missouri": 4661,
      "northern": 4662,
      "northeast": 4663,
      "solar": 4664,
      "subway": 4665,
      "keyboard": 4666,
      "Willie": 4667,
      "Hara": 4668,
      "Harry": 4669,
      "Harbor": 4670,
      "Harrison": 4671,
      "Moby": 4672,
      "Movie": 4673,
      "millim": 4674,
      "nicknamed": 4675,
      "onesia": 4676,
      "legs": 4677,
      "legally": 4678,
      "1941": 4679,
      "1945": 4680,
      "1948": 4681,
      "websites": 4682,
      "marks": 4683,
      "markets": 4684,
      "abbreviated": 4685,
      "brother": 4686,
      "broken": 4687,
      "fined": 4688,
      "ificant": 4689,
      "appearances": 4690,
      "Russians": 4691,
      "Parks": 4692,
      "ski": 4693,
      "typewriter": 4694,
      "organism": 4695,
      "calendar": 4696,
      "hitting": 4697,
      "purposes": 4698,
      "putting": 4699,
      "silversmith": 4700,
      "signature": 4701,
      "significant": 4702,
      "1933": 4703,
      "1935": 4704,
      "1936": 4705,
      "diseases": 4706,
      "Brooks": 4707,
      "certain": 4708,
      "glory": 4709,
      "seller": 4710,
      "consist": 4711,
      "conscious": 4712,
      "special": 4713,
      "specific": 4714,
      "About": 4715,
      "flying": 4716,
      "hammad": 4717,
      "ustrated": 4718,
      "aught": 4719,
      "Angels": 4720,
      "rows": 4721,
      "tube": 4722,
      "region": 4723,
      "motor": 4724,
      "177": 4725,
      "178": 4726,
      "Barb": 4727,
      "Barbie": 4728,
      "Barrymore": 4729,
      "Gene": 4730,
      "Genesis": 4731,
      "household": 4732,
      "vote": 4733,
      "Jean": 4734,
      "ados": 4735,
      "adopt": 4736,
      "girls": 4737,
      "races": 4738,
      "tourist": 4739,
      "intercourse": 4740,
      "stopped": 4741,
      "movement": 4742,
      "development": 4743,
      "flags": 4744,
      "continental": 4745,
      "Elvis": 4746,
      "Holmes": 4747,
      "Peace": 4748,
      "looking": 4749,
      "dolph": 4750,
      "manufactures": 4751,
      "manufacturer": 4752,
      "celebrity": 4753,
      "celebrities": 4754,
      "ctoral": 4755,
      "designer": 4756,
      "designed": 4757,
      "Vietnamese": 4758,
      "Crown": 4759,
      "November": 4760,
      "supposed": 4761,
      "supreme": 4762,
      "wearing": 4763,
      "include": 4764,
      "recorded": 4765,
      "1923": 4766,
      "classic": 4767,
      "astronom": 4768,
      "Desert": 4769,
      "Godfather": 4770,
      "Woody": 4771,
      "Woodrow": 4772,
      "ethoven": 4773,
      "laus": 4774,
      "launched": 4775,
      "advertising": 4776,
      "commerce": 4777,
      "spokes": 4778,
      "companion": 4779,
      "expensive": 4780,
      "empty": 4781,
      "officer": 4782,
      "...": 4783,
      "Amendment": 4784,
      "Belgium": 4785,
      "Davies": 4786,
      "Ernest": 4787,
      "Luke": 4788,
      "Lawrence": 4789,
      "Mediterran": 4790,
      "MacLaine": 4791,
      "Orleans": 4792,
      "faces": 4793,
      "faced": 4794,
      "facial": 4795,
      "kidnap": 4796,
      "penis": 4797,
      "peninsula": 4798,
      "soccer": 4799,
      "society": 4800,
      "winner": 4801,
      "winners": 4802,
      "ettes": 4803,
      "closing": 4804,
      "employe": 4805,
      "effects": 4806,
      "Korean": 4807,
      "copper": 4808,
      "fingers": 4809,
      "treatment": 4810,
      "aysia": 4811,
      "trying": 4812,
      "deadliest": 4813,
      "railroad": 4814,
      "dollars": 4815,
      "Drink": 4816,
      "Lucy": 4817,
      "Lucas": 4818,
      "Mao": 4819,
      "NASA": 4820,
      "Period": 4821,
      "Paris": 4822,
      "Romantic": 4823,
      "Ross": 4824,
      "Switzer": 4825,
      "Silent": 4826,
      "Silver": 4827,
      "ceremony": 4828,
      "digits": 4829,
      "digital": 4830,
      "daughters": 4831,
      "hours": 4832,
      "labor": 4833,
      "label": 4834,
      "pigs": 4835,
      "various": 4836,
      "variety": 4837,
      "vacuum": 4838,
      "yards": 4839,
      "began": 4840,
      "beginning": 4841,
      "colonies": 4842,
      "colonists": 4843,
      "coastline": 4844,
      "clothes": 4845,
      "graduate": 4846,
      "expectant": 4847,
      "promote": 4848,
      "autobiography": 4849,
      "possible": 4850,
      "swimmer": 4851,
      "Scott": 4852,
      "includes": 4853,
      "electricity": 4854,
      "Yankees": 4855,
      "Donald": 4856,
      "Hillary": 4857,
      "Jerry": 4858,
      "Love": 4859,
      "Rubber": 4860,
      "Series": 4861,
      "circle": 4862,
      "circum": 4863,
      "cooking": 4864,
      "determine": 4865,
      "gallon": 4866,
      "gallons": 4867,
      "hurricane": 4868,
      "melting": 4869,
      "release": 4870,
      "floor": 4871,
      "generals": 4872,
      "generator": 4873,
      "Command": 4874,
      "Commun": 4875,
      "Computer": 4876,
      "pitchers": 4877,
      "screenplay": 4878,
      "Congressman": 4879,
      "Disney": 4880,
      "Disabilities": 4881,
      "Doodle": 4882,
      "Gateway": 4883,
      "Mountains": 4884,
      "WWII": 4885,
      "crop": 4886,
      "cabinet": 4887,
      "flew": 4888,
      "hunter": 4889,
      "hunting": 4890,
      "pyram": 4891,
      "sentence": 4892,
      "youngest": 4893,
      "attractions": 4894,
      "thalassem": 4895,
      "seasons": 4896,
      "training": 4897,
      "respond": 4898,
      "synonym": 4899,
      "syndrome": 4900,
      "bottles": 4901,
      "Hawaiian": 4902,
      "Association": 4903,
      "Century": 4904,
      "Central": 4905,
      "Homer": 4906,
      "Homelite": 4907,
      "Helen": 4908,
      "Liberty": 4909,
      "Mormon": 4910,
      "Malaysia": 4911,
      "Nazi": 4912,
      "Nazis": 4913,
      "Panama": 4914,
      "Paso": 4915,
      "Valdez": 4916,
      "aja": 4917,
      "dancing": 4918,
      "easiest": 4919,
      "fatal": 4920,
      "figure": 4921,
      "lobster": 4922,
      "mission": 4923,
      "powder": 4924,
      "psych": 4925,
      "picture": 4926,
      "rules": 4927,
      "terrorist": 4928,
      "opened": 4929,
      "approximate": 4930,
      "likely": 4931,
      "protect": 4932,
      "objects": 4933,
      "ustrial": 4934,
      "Christopher": 4935,
      "journalist": 4936,
      "Amazon": 4937,
      "Alexander": 4938,
      "Delaware": 4939,
      "Depression": 4940,
      "HIV": 4941,
      "Humphrey": 4942,
      "Hungarian": 4943,
      "Jesus": 4944,
      "Moore": 4945,
      "Rolling": 4946,
      "Stock": 4947,
      "Venus": 4948,
      "destroy": 4949,
      "habit": 4950,
      "sweet": 4951,
      "scientific": 4952,
      "votes": 4953,
      "zodiac": 4954,
      "info": 4955,
      "istol": 4956,
      "iroquai": 4957,
      "chronic": 4958,
      "territory": 4959,
      "separates": 4960,
      "constellation": 4961,
      "Indonesia": 4962,
      "Independence": 4963,
      "Stanley": 4964,
      "philos": 4965,
      "corporate": 4966,
      "Argentina": 4967,
      "describe": 4968,
      "architect": 4969,
      "committee": 4970,
      "calculator": 4971,
      "traditional": 4972,
      "satellite": 4973,
      "explorer": 4974,
      "Aspartame": 4975,
      "April": 4976,
      "Bombay": 4977,
      "Casablan": 4978,
      "Court": 4979,
      "Dwarfs": 4980,
      "Family": 4981,
      "Florence": 4982,
      "IOC": 4983,
      "Muhammad": 4984,
      "NBA": 4985,
      "Presley": 4986,
      "Poker": 4987,
      "Sherlock": 4988,
      "Terri": 4989,
      "Teddy": 4990,
      "Tutu": 4991,
      "Travels": 4992,
      "Vienna": 4993,
      "Vincent": 4994,
      "fresh": 4995,
      "rabb": 4996,
      "sauce": 4997,
      "sensitive": 4998,
      "science": 4999,
      "villain": 5000,
      "wheel": 5001,
      "independent": 5002,
      "recipe": 5003,
      "chancellor": 5004,
      "modern": 5005,
      "divorce": 5006,
      "library": 5007,
      "consecutive": 5008,
      "perpetual": 5009,
      "Statue": 5010,
      "practice": 5011,
      "Nevada": 5012,
      "Secretary": 5013,
      "surgeon": 5014,
      "Anglican": 5015,
      "Shelley": 5016,
      "gymnast": 5017,
      "Jefferson": 5018,
      "tournament": 5019,
      "Playboy": 5020,
      "Tristar": 5021,
      "Butterfield": 5022,
      "vaccine": 5023,
      "bibliography": 5024,
      "sculpture": 5025,
      "Austria": 5026,
      "Bolivia": 5027,
      "Bogart": 5028,
      "Boston": 5029,
      "Coca": 5030,
      "Dwight": 5031,
      "Dracula": 5032,
      "Ewoks": 5033,
      "Festival": 5034,
      "Foundation": 5035,
      "Fitzgerald": 5036,
      "Gogh": 5037,
      "Hugo": 5038,
      "Hussein": 5039,
      "Hulk": 5040,
      "Honecker": 5041,
      "Illinois": 5042,
      "Jamiroquai": 5043,
      "Kosovo": 5044,
      "Mikhail": 5045,
      "Oklahoma": 5046,
      "Rotary": 5047,
      "September": 5048,
      "Saddam": 5049,
      "Scrabble": 5050,
      "Taylor": 5051,
      "Triple": 5052,
      "Taiwan": 5053,
      "Tennessee": 5054,
      "Vader": 5055,
      "categ": 5056,
      "glitters": 5057,
      "greeting": 5058,
      "nautical": 5059,
      "piece": 5060,
      "scoundrel": 5061,
      "tongue": 5062,
      "increase": 5063,
      "instead": 5064,
      "istration": 5065,
      "recently": 5066,
      "according": 5067,
      "maneuver": 5068,
      "imaginary": 5069,
      "opposite": 5070,
      "mosquit": 5071,
      "appropri": 5072,
      "diabetes": 5073,
      "contemptible": 5074,
      "spawned": 5075,
      "Incredible": 5076,
      "properties": 5077,
      "mystery": 5078,
      "Algeria": 5079,
      "hooligans": 5080,
      "Democratic": 5081,
      "northernmost": 5082,
      "Mediterranean": 5083,
      "Switzerland": 5084,
      "pyramid": 5085,
      "thalassemia": 5086,
      "Casablanca": 5087,
      "03": 5088,
      "100": 5089,
      "26": 5090,
      "200": 5091,
      "31": 5092,
      "36": 5093,
      "37": 5094,
      "39": 5095,
      "3rd": 5096,
      "46": 5097,
      "455": 5098,
      "5th": 5099,
      "69": 5100,
      "76": 5101,
      "740": 5102,
      "97": 5103,
      "900": 5104,
      "AA": 5105,
      "Af": 5106,
      "Az": 5107,
      "Ast": 5108,
      "Age": 5109,
      "ATM": 5110,
      "Avery": 5111,
      "BI": 5112,
      "BT": 5113,
      "BU": 5114,
      "Bi": 5115,
      "By": 5116,
      "Ban": 5117,
      "Bon": 5118,
      "Bas": 5119,
      "Bou": 5120,
      "Bour": 5121,
      "Bav": 5122,
      "Bann": 5123,
      "Balt": 5124,
      "Basketball": 5125,
      "Bunk": 5126,
      "Bounty": 5127,
      "CT": 5128,
      "Ca": 5129,
      "Cis": 5130,
      "Cow": 5131,
      "Cle": 5132,
      "Cir": 5133,
      "Cro": 5134,
      "Corn": 5135,
      "Cair": 5136,
      "Capp": 5137,
      "Cath": 5138,
      "Cool": 5139,
      "Cash": 5140,
      "Cole": 5141,
      "Caul": 5142,
      "Cube": 5143,
      "Claus": 5144,
      "Di": 5145,
      "Dou": 5146,
      "Doo": 5147,
      "Dut": 5148,
      "Div": 5149,
      "Dale": 5150,
      "Duck": 5151,
      "Dana": 5152,
      "DNA": 5153,
      "Domin": 5154,
      "Eg": 5155,
      "Ey": 5156,
      "Ez": 5157,
      "Eag": 5158,
      "Even": 5159,
      "Esk": 5160,
      "Eiff": 5161,
      "Ethel": 5162,
      "Fat": 5163,
      "Fid": 5164,
      "Fil": 5165,
      "Fir": 5166,
      "Fro": 5167,
      "Fame": 5168,
      "Fant": 5169,
      "Fra": 5170,
      "Five": 5171,
      "Finn": 5172,
      "Fire": 5173,
      "Falk": 5174,
      "Fron": 5175,
      "FDR": 5176,
      "Flying": 5177,
      "FBI": 5178,
      "GE": 5179,
      "GM": 5180,
      "Gl": 5181,
      "Gas": 5182,
      "Gay": 5183,
      "Gul": 5184,
      "Give": 5185,
      "Gif": 5186,
      "Gang": 5187,
      "Gore": 5188,
      "Gats": 5189,
      "Girl": 5190,
      "Gord": 5191,
      "Gret": 5192,
      "Glob": 5193,
      "Gerald": 5194,
      "HU": 5195,
      "Hi": 5196,
      "Hy": 5197,
      "His": 5198,
      "Hor": 5199,
      "Hay": 5200,
      "Hind": 5201,
      "Hot": 5202,
      "Hast": 5203,
      "Hard": 5204,
      "Hood": 5205,
      "Hend": 5206,
      "Hans": 5207,
      "Hep": 5208,
      "Hud": 5209,
      "Hond": 5210,
      "Hoff": 5211,
      "Hamp": 5212,
      "Hug": 5213,
      "Huck": 5214,
      "Honey": 5215,
      "Hole": 5216,
      "Hiro": 5217,
      "Honor": 5218,
      "IN": 5219,
      "Iv": 5220,
      "Ice": 5221,
      "Iber": 5222,
      "Icel": 5223,
      "JP": 5224,
      "Ju": 5225,
      "Jon": 5226,
      "Jay": 5227,
      "Jop": 5228,
      "Jos": 5229,
      "Jake": 5230,
      "Jour": 5231,
      "Jell": 5232,
      "Jog": 5233,
      "Jord": 5234,
      "Judy": 5235,
      "Ke": 5236,
      "Kn": 5237,
      "Ky": 5238,
      "Kat": 5239,
      "Ken": 5240,
      "Kal": 5241,
      "Kil": 5242,
      "Kim": 5243,
      "Kong": 5244,
      "Kaf": 5245,
      "Kno": 5246,
      "Kapp": 5247,
      "Kings": 5248,
      "Khr": 5249,
      "Lis": 5250,
      "Les": 5251,
      "Low": 5252,
      "Line": 5253,
      "Lem": 5254,
      "Lite": 5255,
      "Lif": 5256,
      "Liz": 5257,
      "Lock": 5258,
      "Llo": 5259,
      "Liver": 5260,
      "Lives": 5261,
      "Lago": 5262,
      "LSD": 5263,
      "Lights": 5264,
      "Mas": 5265,
      "Men": 5266,
      "Mid": 5267,
      "Mur": 5268,
      "Mun": 5269,
      "Mong": 5270,
      "Make": 5271,
      "Might": 5272,
      "Mans": 5273,
      "Max": 5274,
      "Maine": 5275,
      "Memp": 5276,
      "Matter": 5277,
      "NJ": 5278,
      "Nat": 5279,
      "Now": 5280,
      "Nel": 5281,
      "Nun": 5282,
      "Nine": 5283,
      "Nint": 5284,
      "Native": 5285,
      "Nico": 5286,
      "Nero": 5287,
      "OL": 5288,
      "OS": 5289,
      "Oc": 5290,
      "Ol": 5291,
      "Ot": 5292,
      "Oil": 5293,
      "Oper": 5294,
      "Py": 5295,
      "Por": 5296,
      "Pic": 5297,
      "Pil": 5298,
      "Pus": 5299,
      "Pia": 5300,
      "Page": 5301,
      "Pack": 5302,
      "Pick": 5303,
      "Pend": 5304,
      "Pink": 5305,
      "Pud": 5306,
      "Phy": 5307,
      "Person": 5308,
      "Peg": 5309,
      "Punch": 5310,
      "Public": 5311,
      "Peps": 5312,
      "Patric": 5313,
      "Piggy": 5314,
      "PLO": 5315,
      "Rh": 5316,
      "Ran": 5317,
      "Run": 5318,
      "Rex": 5319,
      "Rick": 5320,
      "Rice": 5321,
      "Raid": 5322,
      "Rey": 5323,
      "Rica": 5324,
      "Rites": 5325,
      "Rule": 5326,
      "Rhet": 5327,
      "Races": 5328,
      "Ranger": 5329,
      "REE": 5330,
      "Rights": 5331,
      "RAM": 5332,
      "SE": 5333,
      "Sin": 5334,
      "Sis": 5335,
      "Sle": 5336,
      "Som": 5337,
      "Sing": 5338,
      "Sand": 5339,
      "Sig": 5340,
      "Sim": 5341,
      "Sus": 5342,
      "Sab": 5343,
      "Sist": 5344,
      "Sut": 5345,
      "Squ": 5346,
      "Some": 5347,
      "Spart": 5348,
      "Six": 5349,
      "Sho": 5350,
      "Sci": 5351,
      "Sier": 5352,
      "Snow": 5353,
      "Slam": 5354,
      "Satur": 5355,
      "Syd": 5356,
      "Scru": 5357,
      "Shaw": 5358,
      "Semper": 5359,
      "TO": 5360,
      "Ten": 5361,
      "Tim": 5362,
      "Too": 5363,
      "Town": 5364,
      "Tour": 5365,
      "Tran": 5366,
      "Tower": 5367,
      "Twin": 5368,
      "Tony": 5369,
      "Taj": 5370,
      "Tunnel": 5371,
      "Tammy": 5372,
      "TREE": 5373,
      "UK": 5374,
      "Uk": 5375,
      "Up": 5376,
      "Uris": 5377,
      "URL": 5378,
      "Ulyss": 5379,
      "Vo": 5380,
      "Vol": 5381,
      "Varian": 5382,
      "VIII": 5383,
      "VBP": 5384,
      "VCR": 5385,
      "Wr": 5386,
      "Wy": 5387,
      "Wim": 5388,
      "Wake": 5389,
      "Well": 5390,
      "Wolf": 5391,
      "Wright": 5392,
      "Western": 5393,
      "Wonders": 5394,
      "Walker": 5395,
      "Yog": 5396,
      "Yug": 5397,
      "Years": 5398,
      "Yuk": 5399,
      "Zim": 5400,
      "ahn": 5401,
      "aiss": 5402,
      "bis": 5403,
      "ben": 5404,
      "bil": 5405,
      "bass": 5406,
      "bite": 5407,
      "bble": 5408,
      "bath": 5409,
      "bald": 5410,
      "bounty": 5411,
      "cc": 5412,
      "cz": 5413,
      "cin": 5414,
      "cou": 5415,
      "cia": 5416,
      "cies": 5417,
      "cuc": 5418,
      "cra": 5419,
      "chen": 5420,
      "cub": 5421,
      "cuck": 5422,
      "cash": 5423,
      "candy": 5424,
      "clear": 5425,
      "cache": 5426,
      "cause": 5427,
      "cases": 5428,
      "candle": 5429,
      "caught": 5430,
      "dad": 5431,
      "dity": 5432,
      "dish": 5433,
      "dess": 5434,
      "dress": 5435,
      "dang": 5436,
      "dates": 5437,
      "dating": 5438,
      "duel": 5439,
      "eh": 5440,
      "ech": 5441,
      "eigh": 5442,
      "ejac": 5443,
      "fre": 5444,
      "fal": 5445,
      "fic": 5446,
      "fel": 5447,
      "fos": 5448,
      "fated": 5449,
      "fts": 5450,
      "fool": 5451,
      "factor": 5452,
      "fasc": 5453,
      "faith": 5454,
      "fense": 5455,
      "ga": 5456,
      "gi": 5457,
      "gan": 5458,
      "gon": 5459,
      "gal": 5460,
      "ging": 5461,
      "gir": 5462,
      "gman": 5463,
      "gum": 5464,
      "gers": 5465,
      "gly": 5466,
      "gian": 5467,
      "gage": 5468,
      "gins": 5469,
      "gio": 5470,
      "glove": 5471,
      "gression": 5472,
      "garet": 5473,
      "gender": 5474,
      "garden": 5475,
      "han": 5476,
      "hood": 5477,
      "hook": 5478,
      "hob": 5479,
      "honey": 5480,
      "hicles": 5481,
      "honor": 5482,
      "ih": 5483,
      "ither": 5484,
      "iator": 5485,
      "iatric": 5486,
      "iomy": 5487,
      "jog": 5488,
      "jump": 5489,
      "junk": 5490,
      "jiggy": 5491,
      "kin": 5492,
      "kil": 5493,
      "kick": 5494,
      "kang": 5495,
      "kien": 5496,
      "loo": 5497,
      "lick": 5498,
      "lower": 5499,
      "luck": 5500,
      "lions": 5501,
      "lux": 5502,
      "mand": 5503,
      "mare": 5504,
      "mate": 5505,
      "mist": 5506,
      "mort": 5507,
      "might": 5508,
      "mold": 5509,
      "math": 5510,
      "maid": 5511,
      "mouse": 5512,
      "nu": 5513,
      "nit": 5514,
      "nom": 5515,
      "nad": 5516,
      "noun": 5517,
      "nur": 5518,
      "nak": 5519,
      "nut": 5520,
      "nets": 5521,
      "oon": 5522,
      "oir": 5523,
      "ove": 5524,
      "oby": 5525,
      "oge": 5526,
      "ostr": 5527,
      "ody": 5528,
      "oise": 5529,
      "pH": 5530,
      "pon": 5531,
      "pas": 5532,
      "pion": 5533,
      "pir": 5534,
      "pap": 5535,
      "pun": 5536,
      "pist": 5537,
      "pne": 5538,
      "pome": 5539,
      "peter": 5540,
      "pared": 5541,
      "pages": 5542,
      "panic": 5543,
      "pairs": 5544,
      "pension": 5545,
      "paren": 5546,
      "ru": 5547,
      "rhe": 5548,
      "rin": 5549,
      "rol": 5550,
      "rich": 5551,
      "rase": 5552,
      "rtle": 5553,
      "rough": 5554,
      "rors": 5555,
      "rhy": 5556,
      "rug": 5557,
      "rings": 5558,
      "rating": 5559,
      "ranges": 5560,
      "sm": 5561,
      "ses": 5562,
      "sel": 5563,
      "sim": 5564,
      "smo": 5565,
      "sum": 5566,
      "sav": 5567,
      "sale": 5568,
      "scr": 5569,
      "sug": 5570,
      "sled": 5571,
      "scal": 5572,
      "since": 5573,
      "sided": 5574,
      "sizes": 5575,
      "sgiving": 5576,
      "sitcom": 5577,
      "snee": 5578,
      "tal": 5579,
      "tum": 5580,
      "tast": 5581,
      "tout": 5582,
      "tick": 5583,
      "tend": 5584,
      "tile": 5585,
      "tens": 5586,
      "table": 5587,
      "tune": 5588,
      "tomat": 5589,
      "ua": 5590,
      "uth": 5591,
      "uay": 5592,
      "uation": 5593,
      "udi": 5594,
      "uish": 5595,
      "uable": 5596,
      "von": 5597,
      "vow": 5598,
      "vag": 5599,
      "vate": 5600,
      "vich": 5601,
      "veter": 5602,
      "vival": 5603,
      "wi": 5604,
      "wer": 5605,
      "wed": 5606,
      "wing": 5607,
      "wand": 5608,
      "wet": 5609,
      "wel": 5610,
      "wake": 5611,
      "wolf": 5612,
      "xon": 5613,
      "xim": 5614,
      "xtro": 5615,
      "ximum": 5616,
      "ya": 5617,
      "yan": 5618,
      "yet": 5619,
      "yers": 5620,
      "yach": 5621,
      "ygen": 5622,
      "yright": 5623,
      "yweight": 5624,
      "yphen": 5625,
      "zing": 5626,
      "zones": 5627,
      "heat": 5628,
      "hell": 5629,
      "ata": 5630,
      "ati": 5631,
      "atts": 5632,
      "ators": 5633,
      "attempt": 5634,
      "attemp": 5635,
      "Whitcom": 5636,
      "thest": 5637,
      "inis": 5638,
      "inst": 5639,
      "inid": 5640,
      "inch": 5641,
      "ination": 5642,
      "inate": 5643,
      "inut": 5644,
      "inav": 5645,
      "inoes": 5646,
      "inoz": 5647,
      "inburgh": 5648,
      "individ": 5649,
      "inoco": 5650,
      "influ": 5651,
      "injection": 5652,
      "ano": 5653,
      "anch": 5654,
      "anist": 5655,
      "anne": 5656,
      "anical": 5657,
      "anthem": 5658,
      "ancient": 5659,
      "iser": 5660,
      "isfact": 5661,
      "isky": 5662,
      "isode": 5663,
      "ern": 5664,
      "erve": 5665,
      "erals": 5666,
      "rem": 5667,
      "reun": 5668,
      "refr": 5669,
      "report": 5670,
      "really": 5671,
      "recess": 5672,
      "reput": 5673,
      "ready": 5674,
      "reference": 5675,
      "review": 5676,
      "recru": 5677,
      "onen": 5678,
      "onia": 5679,
      "onment": 5680,
      "onze": 5681,
      "ora": 5682,
      "orm": 5683,
      "oring": 5684,
      "orca": 5685,
      "orosis": 5686,
      "orney": 5687,
      "esar": 5688,
      "arp": 5689,
      "aran": 5690,
      "ardo": 5691,
      "aring": 5692,
      "arro": 5693,
      "aration": 5694,
      "aroo": 5695,
      "arma": 5696,
      "armor": 5697,
      "oftop": 5698,
      "asm": 5699,
      "asis": 5700,
      "asion": 5701,
      "aspart": 5702,
      "asures": 5703,
      "asury": 5704,
      "enes": 5705,
      "endo": 5706,
      "enough": 5707,
      "enburg": 5708,
      "enberg": 5709,
      "enstein": 5710,
      "envir": 5711,
      "enzy": 5712,
      "alan": 5713,
      "aland": 5714,
      "alab": 5715,
      "alie": 5716,
      "almost": 5717,
      "alian": 5718,
      "alous": 5719,
      "alley": 5720,
      "alleg": 5721,
      "edle": 5722,
      "edia": 5723,
      "oust": 5724,
      "outer": 5725,
      "oured": 5726,
      "owed": 5727,
      "stere": 5728,
      "stals": 5729,
      "stairs": 5730,
      "studi": 5731,
      "itical": 5732,
      "itchen": 5733,
      "icol": 5734,
      "icop": 5735,
      "icate": 5736,
      "ams": 5737,
      "aman": 5738,
      "amor": 5739,
      "amen": 5740,
      "amic": 5741,
      "ament": 5742,
      "amus": 5743,
      "amate": 5744,
      "ampl": 5745,
      "among": 5746,
      "amph": 5747,
      "amendment": 5748,
      "leen": 5749,
      "leper": 5750,
      "leav": 5751,
      "lecul": 5752,
      "leberry": 5753,
      "lethal": 5754,
      "leuk": 5755,
      "oming": 5756,
      "dot": 5757,
      "doll": 5758,
      "dozen": 5759,
      "dooby": 5760,
      "iding": 5761,
      "idity": 5762,
      "tok": 5763,
      "toes": 5764,
      "tool": 5765,
      "toys": 5766,
      "tolog": 5767,
      "total": 5768,
      "ingo": 5769,
      "inguish": 5770,
      "ands": 5771,
      "andoned": 5772,
      "andinav": 5773,
      "wash": 5774,
      "olis": 5775,
      "olic": 5776,
      "oline": 5777,
      "olies": 5778,
      "acus": 5779,
      "acne": 5780,
      "acles": 5781,
      "acier": 5782,
      "ila": 5783,
      "ilist": 5784,
      "ilog": 5785,
      "ilder": 5786,
      "ilton": 5787,
      "tha": 5788,
      "thy": 5789,
      "thro": 5790,
      "thought": 5791,
      "ently": 5792,
      "entine": 5793,
      "forward": 5794,
      "ioner": 5795,
      "areas": 5796,
      "ety": 5797,
      "etic": 5798,
      "etle": 5799,
      "eting": 5800,
      "etro": 5801,
      "etime": 5802,
      "etrate": 5803,
      "elis": 5804,
      "elle": 5805,
      "eling": 5806,
      "else": 5807,
      "elly": 5808,
      "elph": 5809,
      "ellet": 5810,
      "ira": 5811,
      "ird": 5812,
      "irk": 5813,
      "irate": 5814,
      "admin": 5815,
      "advis": 5816,
      "adays": 5817,
      "adrup": 5818,
      "adventures": 5819,
      "adamus": 5820,
      "adelph": 5821,
      "roe": 5822,
      "rox": 5823,
      "rode": 5824,
      "rooge": 5825,
      "rooftop": 5826,
      "cho": 5827,
      "ching": 5828,
      "chol": 5829,
      "chip": 5830,
      "chances": 5831,
      "chief": 5832,
      "changed": 5833,
      "igo": 5834,
      "igr": 5835,
      "igence": 5836,
      "terry": 5837,
      "alled": 5838,
      "alleng": 5839,
      "seat": 5840,
      "seed": 5841,
      "sevent": 5842,
      "seiz": 5843,
      "seaf": 5844,
      "section": 5845,
      "security": 5846,
      "trig": 5847,
      "trak": 5848,
      "trum": 5849,
      "tries": 5850,
      "trian": 5851,
      "track": 5852,
      "trav": 5853,
      "truth": 5854,
      "trilog": 5855,
      "veins": 5856,
      "vehicles": 5857,
      "estate": 5858,
      "estone": 5859,
      "estial": 5860,
      "urt": 5861,
      "ural": 5862,
      "urban": 5863,
      "combin": 5864,
      "beas": 5865,
      "beans": 5866,
      "beaver": 5867,
      "beaut": 5868,
      "beque": 5869,
      "impro": 5870,
      "image": 5871,
      "imals": 5872,
      "imposed": 5873,
      "imprison": 5874,
      "opes": 5875,
      "opher": 5876,
      "ophy": 5877,
      "opener": 5878,
      "oppon": 5879,
      "oporosis": 5880,
      "usen": 5881,
      "verse": 5882,
      "verly": 5883,
      "vermouth": 5884,
      "verdict": 5885,
      "mob": 5886,
      "moth": 5887,
      "moving": 5888,
      "modem": 5889,
      "molecul": 5890,
      "agen": 5891,
      "agos": 5892,
      "agra": 5893,
      "agree": 5894,
      "agency": 5895,
      "aghet": 5896,
      "aps": 5897,
      "apor": 5898,
      "apes": 5899,
      "appl": 5900,
      "apolis": 5901,
      "ationship": 5902,
      "resist": 5903,
      "resource": 5904,
      "tec": 5905,
      "teeth": 5906,
      "teacher": 5907,
      "whale": 5908,
      "whisky": 5909,
      "dix": 5910,
      "dier": 5911,
      "dies": 5912,
      "diag": 5913,
      "diary": 5914,
      "divers": 5915,
      "dialing": 5916,
      "dialog": 5917,
      "dioxide": 5918,
      "ooby": 5919,
      "ooting": 5920,
      "ules": 5921,
      "ulation": 5922,
      "ulum": 5923,
      "ultural": 5924,
      "worm": 5925,
      "worn": 5926,
      "cement": 5927,
      "plom": 5928,
      "pling": 5929,
      "plag": 5930,
      "plug": 5931,
      "placed": 5932,
      "aks": 5933,
      "aky": 5934,
      "1900": 5935,
      "1913": 5936,
      "unique": 5937,
      "abase": 5938,
      "abandoned": 5939,
      "ctive": 5940,
      "peas": 5941,
      "pecker": 5942,
      "lier": 5943,
      "umber": 5944,
      "umonia": 5945,
      "deal": 5946,
      "deals": 5947,
      "debut": 5948,
      "deleg": 5949,
      "device": 5950,
      "dealer": 5951,
      "defeat": 5952,
      "deodor": 5953,
      "dextro": 5954,
      "fraction": 5955,
      "canine": 5956,
      "conj": 5957,
      "conver": 5958,
      "conce": 5959,
      "conut": 5960,
      "concent": 5961,
      "conference": 5962,
      "constitution": 5963,
      "conversion": 5964,
      "counting": 5965,
      "ocal": 5966,
      "octop": 5967,
      "lyn": 5968,
      "istor": 5969,
      "industrial": 5970,
      "spice": 5971,
      "spins": 5972,
      "spark": 5973,
      "spider": 5974,
      "spread": 5975,
      "spots": 5976,
      "spaces": 5977,
      "spoke": 5978,
      "mem": 5979,
      "mech": 5980,
      "measures": 5981,
      "meeting": 5982,
      "feed": 5983,
      "fever": 5984,
      "merged": 5985,
      "Indig": 5986,
      "arton": 5987,
      "artific": 5988,
      "articles": 5989,
      "share": 5990,
      "shad": 5991,
      "shake": 5992,
      "shamp": 5993,
      "shark": 5994,
      "shire": 5995,
      "shoot": 5996,
      "shared": 5997,
      "shield": 5998,
      "shouts": 5999,
      "There": 6000,
      "rib": 6001,
      "rix": 6002,
      "rian": 6003,
      "riage": 6004,
      "utions": 6005,
      "utsk": 6006,
      "havoc": 6007,
      "habeas": 6008,
      "asty": 6009,
      "inea": 6010,
      "wealth": 6011,
      "osome": 6012,
      "ills": 6013,
      "illion": 6014,
      "illustrated": 6015,
      "prot": 6016,
      "proof": 6017,
      "proposition": 6018,
      "propox": 6019,
      "proxim": 6020,
      "ieval": 6021,
      "quen": 6022,
      "quot": 6023,
      "quant": 6024,
      "quarts": 6025,
      "quadrup": 6026,
      "bog": 6027,
      "both": 6028,
      "colt": 6029,
      "colored": 6030,
      "perman": 6031,
      "calls": 6032,
      "neon": 6033,
      "neigh": 6034,
      "nemy": 6035,
      "necess": 6036,
      "nectic": 6037,
      "actors": 6038,
      "bernia": 6039,
      "codes": 6040,
      "coconut": 6041,
      "iant": 6042,
      "ards": 6043,
      "within": 6044,
      "cles": 6045,
      "clitor": 6046,
      "climate": 6047,
      "Choo": 6048,
      "Chapp": 6049,
      "Chance": 6050,
      "Chief": 6051,
      "compound": 6052,
      "compris": 6053,
      "anti": 6054,
      "ants": 6055,
      "grand": 6056,
      "grass": 6057,
      "grade": 6058,
      "grav": 6059,
      "graces": 6060,
      "ourish": 6061,
      "ucation": 6062,
      "output": 6063,
      "acker": 6064,
      "ackle": 6065,
      "eller": 6066,
      "elling": 6067,
      "ellers": 6068,
      "elligence": 6069,
      "upper": 6070,
      "uppy": 6071,
      "uren": 6072,
      "oodle": 6073,
      "blow": 6074,
      "bling": 6075,
      "blical": 6076,
      "block": 6077,
      "blues": 6078,
      "raz": 6079,
      "raised": 6080,
      "assign": 6081,
      "ema": 6082,
      "emen": 6083,
      "emia": 6084,
      "emble": 6085,
      "emperor": 6086,
      "embass": 6087,
      "ighted": 6088,
      "ightest": 6089,
      "larger": 6090,
      "icken": 6091,
      "means": 6092,
      "getting": 6093,
      "herst": 6094,
      "hermit": 6095,
      "mentor": 6096,
      "endanger": 6097,
      "kee": 6098,
      "kefell": 6099,
      "monkey": 6100,
      "monitor": 6101,
      "twin": 6102,
      "twice": 6103,
      "statement": 6104,
      "prism": 6105,
      "princ": 6106,
      "proud": 6107,
      "prayer": 6108,
      "creatures": 6109,
      "iva": 6110,
      "therlands": 6111,
      "origines": 6112,
      "originated": 6113,
      "tysburg": 6114,
      "ogen": 6115,
      "ogens": 6116,
      "bras": 6117,
      "brown": 6118,
      "brick": 6119,
      "brightest": 6120,
      "carcin": 6121,
      "ify": 6122,
      "iful": 6123,
      "poor": 6124,
      "pole": 6125,
      "pool": 6126,
      "avail": 6127,
      "avors": 6128,
      "ghanist": 6129,
      "derick": 6130,
      "tainer": 6131,
      "kness": 6132,
      "phrase": 6133,
      "hener": 6134,
      "Neal": 6135,
      "Needle": 6136,
      "Netherlands": 6137,
      "betting": 6138,
      "angled": 6139,
      "aching": 6140,
      "achieve": 6141,
      "flat": 6142,
      "flon": 6143,
      "flood": 6144,
      "flog": 6145,
      "flourish": 6146,
      "flavors": 6147,
      "goat": 6148,
      "goes": 6149,
      "Joy": 6150,
      "bute": 6151,
      "bugs": 6152,
      "buys": 6153,
      "bubble": 6154,
      "famil": 6155,
      "idealab": 6156,
      "episode": 6157,
      "disorder": 6158,
      "distri": 6159,
      "district": 6160,
      "lette": 6161,
      "chee": 6162,
      "chev": 6163,
      "cheese": 6164,
      "chefs": 6165,
      "sylate": 6166,
      "sycats": 6167,
      "syrup": 6168,
      "orns": 6169,
      "ennium": 6170,
      "elevation": 6171,
      "electoral": 6172,
      "strum": 6173,
      "stract": 6174,
      "stront": 6175,
      "stradamus": 6176,
      "marvel": 6177,
      "marry": 6178,
      "marrow": 6179,
      "marriage": 6180,
      "noon": 6181,
      "nothing": 6182,
      "centers": 6183,
      "central": 6184,
      "inventors": 6185,
      "apped": 6186,
      "apping": 6187,
      "Mars": 6188,
      "Marine": 6189,
      "Marco": 6190,
      "Marlow": 6191,
      "Marcos": 6192,
      "Marshall": 6193,
      "Margaret": 6194,
      "Martha": 6195,
      "issa": 6196,
      "issued": 6197,
      "ilding": 6198,
      "whole": 6199,
      "drag": 6200,
      "files": 6201,
      "rank": 6202,
      "ranch": 6203,
      "ollo": 6204,
      "inky": 6205,
      "Warner": 6206,
      "partner": 6207,
      "stands": 6208,
      "Alan": 6209,
      "daycare": 6210,
      "differences": 6211,
      "serv": 6212,
      "sery": 6213,
      "vens": 6214,
      "Spice": 6215,
      "Spider": 6216,
      "Spangled": 6217,
      "corde": 6218,
      "correspond": 6219,
      "Art": 6220,
      "Army": 6221,
      "Arcad": 6222,
      "Aristo": 6223,
      "Presidents": 6224,
      "bestselling": 6225,
      "athlete": 6226,
      "athlon": 6227,
      "inton": 6228,
      "intest": 6229,
      "intstones": 6230,
      "intelligence": 6231,
      "ensed": 6232,
      "fied": 6233,
      "fiber": 6234,
      "fibr": 6235,
      "fibro": 6236,
      "183": 6237,
      "1812": 6238,
      "1847": 6239,
      "lobe": 6240,
      "loved": 6241,
      "udonym": 6242,
      "capt": 6243,
      "capture": 6244,
      "numeral": 6245,
      "Worlds": 6246,
      "ckley": 6247,
      "warm": 6248,
      "singles": 6249,
      "singular": 6250,
      "Anton": 6251,
      "Anything": 6252,
      "Animals": 6253,
      "1961": 6254,
      "1962": 6255,
      "1964": 6256,
      "causing": 6257,
      "cycle": 6258,
      "ption": 6259,
      "innings": 6260,
      "condiment": 6261,
      "condoms": 6262,
      "bread": 6263,
      "crown": 6264,
      "crust": 6265,
      "crash": 6266,
      "cricket": 6267,
      "maximum": 6268,
      "mineral": 6269,
      "minute": 6270,
      "okes": 6271,
      "oklyn": 6272,
      "odist": 6273,
      "odors": 6274,
      "1982": 6275,
      "1985": 6276,
      "1988": 6277,
      "viscos": 6278,
      "topped": 6279,
      "Thing": 6280,
      "Thur": 6281,
      "hypert": 6282,
      "Leban": 6283,
      "NNS": 6284,
      "Norman": 6285,
      "Norway": 6286,
      "cium": 6287,
      "ciples": 6288,
      "lasts": 6289,
      "speaking": 6290,
      "leads": 6291,
      "leaders": 6292,
      "Indies": 6293,
      "Individ": 6294,
      "Englishman": 6295,
      "Colomb": 6296,
      "genetics": 6297,
      "kills": 6298,
      "killing": 6299,
      "lawyers": 6300,
      "preacher": 6301,
      "prepared": 6302,
      "scholar": 6303,
      "content": 6304,
      "Beak": 6305,
      "Beers": 6306,
      "Beanie": 6307,
      "Beethoven": 6308,
      "Beetle": 6309,
      "Beverly": 6310,
      "Carl": 6311,
      "liner": 6312,
      "lines": 6313,
      "liners": 6314,
      "ucks": 6315,
      "afternoon": 6316,
      "Brune": 6317,
      "Browns": 6318,
      "Steve": 6319,
      "Stevie": 6320,
      "Stefan": 6321,
      "Willy": 6322,
      "cult": 6323,
      "auts": 6324,
      "steel": 6325,
      "steau": 6326,
      "steep": 6327,
      "adding": 6328,
      "muscles": 6329,
      "sued": 6330,
      "suite": 6331,
      "says": 6332,
      "orgasm": 6333,
      "surname": 6334,
      "surfing": 6335,
      "surviv": 6336,
      "thrilled": 6337,
      "1976": 6338,
      "1977": 6339,
      "1979": 6340,
      "spacewalk": 6341,
      "collection": 6342,
      "colleges": 6343,
      "Canary": 6344,
      "medals": 6345,
      "swap": 6346,
      "heads": 6347,
      "groups": 6348,
      "Comes": 6349,
      "Comedy": 6350,
      "azz": 6351,
      "volley": 6352,
      "volution": 6353,
      "attorney": 6354,
      "1951": 6355,
      "1958": 6356,
      "1959": 6357,
      "Charley": 6358,
      "ahari": 6359,
      "handed": 6360,
      "handic": 6361,
      "handle": 6362,
      "handheld": 6363,
      "jean": 6364,
      "jeep": 6365,
      "jealous": 6366,
      "polis": 6367,
      "political": 6368,
      "boycot": 6369,
      "producing": 6370,
      "Bligh": 6371,
      "Blanc": 6372,
      "Contract": 6373,
      "Connectic": 6374,
      "Concorde": 6375,
      "Edith": 6376,
      "Edberg": 6377,
      "Edinburgh": 6378,
      "Education": 6379,
      "Mona": 6380,
      "Monet": 6381,
      "Monaco": 6382,
      "ieties": 6383,
      "literal": 6384,
      "litmus": 6385,
      "oxox": 6386,
      "oxygen": 6387,
      "snake": 6388,
      "snore": 6389,
      "snail": 6390,
      "annon": 6391,
      "annel": 6392,
      "annual": 6393,
      "shouldn": 6394,
      "Gehr": 6395,
      "egan": 6396,
      "foreign": 6397,
      "foreclos": 6398,
      "related": 6399,
      "relations": 6400,
      "relationship": 6401,
      "onsible": 6402,
      "trait": 6403,
      "traits": 6404,
      "costs": 6405,
      "costume": 6406,
      "blacks": 6407,
      "Mission": 6408,
      "Prof": 6409,
      "Pride": 6410,
      "Prime": 6411,
      "Pruss": 6412,
      "farthest": 6413,
      "solo": 6414,
      "solved": 6415,
      "soldier": 6416,
      "subtitled": 6417,
      "underworld": 6418,
      "underwater": 6419,
      "ripening": 6420,
      "boarding": 6421,
      "buildings": 6422,
      "majority": 6423,
      "Bert": 6424,
      "Harper": 6425,
      "Moor": 6426,
      "butter": 6427,
      "cardinal": 6428,
      "eaten": 6429,
      "millions": 6430,
      "millennium": 6431,
      "softball": 6432,
      "wrist": 6433,
      "onesbury": 6434,
      "legged": 6435,
      "directly": 6436,
      "1946": 6437,
      "1940s": 6438,
      "marked": 6439,
      "Review": 6440,
      "Reagan": 6441,
      "Revolution": 6442,
      "borrow": 6443,
      "broke": 6444,
      "equation": 6445,
      "equity": 6446,
      "equator": 6447,
      "equipment": 6448,
      "commiss": 6449,
      "ifications": 6450,
      "appears": 6451,
      "addresses": 6452,
      "1649": 6453,
      "1642": 6454,
      "Grant": 6455,
      "Grace": 6456,
      "Grapes": 6457,
      "Parker": 6458,
      "Shevard": 6459,
      "ika": 6460,
      "enger": 6461,
      "operations": 6462,
      "Manch": 6463,
      "Manche": 6464,
      "calcium": 6465,
      "purified": 6466,
      "silk": 6467,
      "sils": 6468,
      "silent": 6469,
      "settle": 6470,
      "restore": 6471,
      "restored": 6472,
      "1937": 6473,
      "typing": 6474,
      "typist": 6475,
      "Bros": 6476,
      "Brooklyn": 6477,
      "Dicken": 6478,
      "Scouts": 6479,
      "Scandinav": 6480,
      "Scrooge": 6481,
      "Scopes": 6482,
      "Scooby": 6483,
      "Santos": 6484,
      "babwe": 6485,
      "background": 6486,
      "glacier": 6487,
      "ibians": 6488,
      "master": 6489,
      "mascot": 6490,
      "slow": 6491,
      "slave": 6492,
      "slogan": 6493,
      "slinky": 6494,
      "tenpin": 6495,
      "systems": 6496,
      "spectrum": 6497,
      "Abner": 6498,
      "McC": 6499,
      "McKin": 6500,
      "highway": 6501,
      "lightning": 6502,
      "paras": 6503,
      "sunda": 6504,
      "learn": 6505,
      "learning": 6506,
      "ilyn": 6507,
      "seeing": 6508,
      "ushi": 6509,
      "ushchev": 6510,
      "126": 6511,
      "15th": 6512,
      "bars": 6513,
      "barbeque": 6514,
      "mathemat": 6515,
      "themsel": 6516,
      "register": 6517,
      "regular": 6518,
      "contribut": 6519,
      "burglar": 6520,
      "Italians": 6521,
      "Superbowl": 6522,
      "1797": 6523,
      "Barnum": 6524,
      "Louie": 6525,
      "ctric": 6526,
      "efits": 6527,
      "housewife": 6528,
      "metal": 6529,
      "metabol": 6530,
      "nesses": 6531,
      "shel": 6532,
      "sheep": 6533,
      "succeed": 6534,
      "strips": 6535,
      "impress": 6536,
      "depression": 6537,
      "depicted": 6538,
      "traveled": 6539,
      "Myrtle": 6540,
      "adopted": 6541,
      "downs": 6542,
      "golden": 6543,
      "mayonna": 6544,
      "racing": 6545,
      "tourism": 6546,
      "tourists": 6547,
      "interview": 6548,
      "stops": 6549,
      "comedien": 6550,
      "undred": 6551,
      "defined": 6552,
      "Australian": 6553,
      "Greece": 6554,
      "Holy": 6555,
      "Holland": 6556,
      "Michener": 6557,
      "People": 6558,
      "Peanut": 6559,
      "horsepower": 6560,
      "listen": 6561,
      "nowadays": 6562,
      "manufacture": 6563,
      "seventh": 6564,
      "boxes": 6565,
      "professor": 6566,
      "Frankfur": 6567,
      "Frankenstein": 6568,
      "Crime": 6569,
      "Capone": 6570,
      "Capital": 6571,
      "Hawks": 6572,
      "Madrid": 6573,
      "Nothing": 6574,
      "Nostradamus": 6575,
      "Plain": 6576,
      "Place": 6577,
      "belong": 6578,
      "castle": 6579,
      "casting": 6580,
      "donated": 6581,
      "damage": 6582,
      "daminoz": 6583,
      "details": 6584,
      "distinguish": 6585,
      "guy": 6586,
      "guinea": 6587,
      "mitted": 6588,
      "tells": 6589,
      "valuable": 6590,
      "wears": 6591,
      "walker": 6592,
      "omenon": 6593,
      "rocks": 6594,
      "rocket": 6595,
      "1929": 6596,
      "1920s": 6597,
      "weeks": 6598,
      "quarter": 6599,
      "quarters": 6600,
      "growth": 6601,
      "electrical": 6602,
      "introduce": 6603,
      "pregnacy": 6604,
      "temperatures": 6605,
      "Brave": 6606,
      "Braves": 6607,
      "Descri": 6608,
      "Garland": 6609,
      "Lata": 6610,
      "Woodpecker": 6611,
      "camel": 6612,
      "dominoes": 6613,
      "ethnic": 6614,
      "holes": 6615,
      "ysis": 6616,
      "advertises": 6617,
      "offices": 6618,
      "everything": 6619,
      "Philadelph": 6620,
      "Amtrak": 6621,
      "Amherst": 6622,
      "Believe": 6623,
      "Belushi": 6624,
      "Ernie": 6625,
      "Exchange": 6626,
      "Exxon": 6627,
      "Herb": 6628,
      "Herm": 6629,
      "Hermann": 6630,
      "Lux": 6631,
      "Medieval": 6632,
      "Milton": 6633,
      "Maggio": 6634,
      "Massacre": 6635,
      "Orinoco": 6636,
      "Project": 6637,
      "Room": 6638,
      "Truman": 6639,
      "Trinid": 6640,
      "cision": 6641,
      "hike": 6642,
      "oves": 6643,
      "pencil": 6644,
      "penetrate": 6645,
      "screens": 6646,
      "helicop": 6647,
      "rett": 6648,
      "reading": 6649,
      "occurs": 6650,
      "closed": 6651,
      "poetry": 6652,
      "magazines": 6653,
      "alphabetical": 6654,
      "alphabetically": 6655,
      "Cooper": 6656,
      "Wayne": 6657,
      "billion": 6658,
      "cathedral": 6659,
      "copies": 6660,
      "machine": 6661,
      "zabeth": 6662,
      "heroine": 6663,
      "hearts": 6664,
      "revolt": 6665,
      "revolve": 6666,
      "revolutions": 6667,
      "statues": 6668,
      "student": 6669,
      "programming": 6670,
      "extin": 6671,
      "extensions": 6672,
      "Blackhaw": 6673,
      "Approxim": 6674,
      "Apollo": 6675,
      "Clay": 6676,
      "Club": 6677,
      "Clinton": 6678,
      "Force": 6679,
      "Mae": 6680,
      "Major": 6681,
      "Maurice": 6682,
      "Parrot": 6683,
      "Rosa": 6684,
      "Swamp": 6685,
      "Simpson": 6686,
      "VHF": 6687,
      "driven": 6688,
      "evil": 6689,
      "journey": 6690,
      "limit": 6691,
      "limits": 6692,
      "labels": 6693,
      "rising": 6694,
      "senator": 6695,
      "varieties": 6696,
      "ylene": 6697,
      "stocks": 6698,
      "chnology": 6699,
      "veyor": 6700,
      "begins": 6701,
      "declare": 6702,
      "colonial": 6703,
      "coastal": 6704,
      "graders": 6705,
      "prompted": 6706,
      "affected": 6707,
      "visitors": 6708,
      "historic": 6709,
      "superstar": 6710,
      "headquartered": 6711,
      "engineer": 6712,
      "engineering": 6713,
      "Scotch": 6714,
      "governmental": 6715,
      "joined": 6716,
      "joining": 6717,
      "including": 6718,
      "murdered": 6719,
      "2112": 6720,
      "Doonesbury": 6721,
      "Every": 6722,
      "Guild": 6723,
      "Head": 6724,
      "Heaven": 6725,
      "Hills": 6726,
      "Hillbil": 6727,
      "Lauren": 6728,
      "Lovers": 6729,
      "Melissa": 6730,
      "Poland": 6731,
      "Rubik": 6732,
      "Robb": 6733,
      "Service": 6734,
      "Social": 6735,
      "Victorian": 6736,
      "bullet": 6737,
      "circul": 6738,
      "cookies": 6739,
      "caffeinated": 6740,
      "juice": 6741,
      "martinis": 6742,
      "mixing": 6743,
      "napsylate": 6744,
      "phenomenon": 6745,
      "heavily": 6746,
      "heaviest": 6747,
      "heavier": 6748,
      "heavyweight": 6749,
      "incident": 6750,
      "inspir": 6751,
      "storms": 6752,
      "stationed": 6753,
      "chairs": 6754,
      "bears": 6755,
      "measured": 6756,
      "processor": 6757,
      "clockwise": 6758,
      "explos": 6759,
      "keeps": 6760,
      "float": 6761,
      "floors": 6762,
      "correctly": 6763,
      "Commune": 6764,
      "religions": 6765,
      "controls": 6766,
      "Jews": 6767,
      "diamonds": 6768,
      "Bobby": 6769,
      "Clara": 6770,
      "Costa": 6771,
      "Daniel": 6772,
      "Danube": 6773,
      "Jules": 6774,
      "Triangle": 6775,
      "bombing": 6776,
      "cotton": 6777,
      "crystals": 6778,
      "gained": 6779,
      "hardest": 6780,
      "ienced": 6781,
      "moral": 6782,
      "ozone": 6783,
      "pilot": 6784,
      "pilots": 6785,
      "scale": 6786,
      "scene": 6787,
      "virtual": 6788,
      "width": 6789,
      "walls": 6790,
      "wallpaper": 6791,
      "attraction": 6792,
      "adora": 6793,
      "triplets": 6794,
      "responsible": 6795,
      "until": 6796,
      "weapons": 6797,
      "experts": 6798,
      "experiment": 6799,
      "experienced": 6800,
      "credited": 6801,
      "elections": 6802,
      "structure": 6803,
      "airports": 6804,
      "Archie": 6805,
      "burns": 6806,
      "breeds": 6807,
      "volcanoes": 6808,
      "attacks": 6809,
      "bottom": 6810,
      "bottled": 6811,
      "patented": 6812,
      "Associates": 6813,
      "touching": 6814,
      "Admir": 6815,
      "Adventures": 6816,
      "Awards": 6817,
      "Budwe": 6818,
      "Bulls": 6819,
      "Eleven": 6820,
      "Electric": 6821,
      "Freud": 6822,
      "Frederick": 6823,
      "Goth": 6824,
      "Helens": 6825,
      "Naples": 6826,
      "Pascal": 6827,
      "Valentine": 6828,
      "bourg": 6829,
      "bourne": 6830,
      "civilization": 6831,
      "doubles": 6832,
      "danced": 6833,
      "frog": 6834,
      "frogs": 6835,
      "frozen": 6836,
      "figures": 6837,
      "fighting": 6838,
      "horoscope": 6839,
      "hotel": 6840,
      "layer": 6841,
      "layers": 6842,
      "nests": 6843,
      "panel": 6844,
      "powers": 6845,
      "pictures": 6846,
      "ratio": 6847,
      "ratified": 6848,
      "ruled": 6849,
      "sailor": 6850,
      "sailors": 6851,
      "vocal": 6852,
      "refuge": 6853,
      "educational": 6854,
      "account": 6855,
      "ophob": 6856,
      "opening": 6857,
      "technical": 6858,
      "likes": 6859,
      "provider": 6860,
      "protein": 6861,
      "existence": 6862,
      "postage": 6863,
      "goddess": 6864,
      "1853": 6865,
      "conditioning": 6866,
      "crabs": 6867,
      "saltpeter": 6868,
      "purchased": 6869,
      "Brazilian": 6870,
      "Robinson": 6871,
      "Amazing": 6872,
      "Alexandra": 6873,
      "Wonderland": 6874,
      "lengths": 6875,
      "Bette": 6876,
      "Cathedral": 6877,
      "Flintstones": 6878,
      "Fortune": 6879,
      "Gettysburg": 6880,
      "Hungary": 6881,
      "Jesse": 6882,
      "Minister": 6883,
      "Motors": 6884,
      "Moscow": 6885,
      "Mills": 6886,
      "Miller": 6887,
      "Palmer": 6888,
      "Palace": 6889,
      "Salonen": 6890,
      "Trek": 6891,
      "Treasure": 6892,
      "Yellowstone": 6893,
      "cocktail": 6894,
      "diminut": 6895,
      "fictional": 6896,
      "humming": 6897,
      "humidity": 6898,
      "mirror": 6899,
      "materials": 6900,
      "prize": 6901,
      "private": 6902,
      "passing": 6903,
      "pollution": 6904,
      "scientists": 6905,
      "talking": 6906,
      "vitamin": 6907,
      "voting": 6908,
      "invade": 6909,
      "invasion": 6910,
      "replaced": 6911,
      "tooth": 6912,
      "rotary": 6913,
      "chronicles": 6914,
      "territories": 6915,
      "separated": 6916,
      "tribe": 6917,
      "apartment": 6918,
      "appointed": 6919,
      "teenager": 6920,
      "divided": 6921,
      "decathlon": 6922,
      "deepest": 6923,
      "Independent": 6924,
      "neurological": 6925,
      "cognac": 6926,
      "clubs": 6927,
      "competition": 6928,
      "exports": 6929,
      "Stanford": 6930,
      "pronounce": 6931,
      "pronounced": 6932,
      "corporation": 6933,
      "Argentine": 6934,
      "architecture": 6935,
      "broadcasting": 6936,
      "community": 6937,
      "communist": 6938,
      "calculate": 6939,
      "translated": 6940,
      "translations": 6941,
      "Andrews": 6942,
      "satellites": 6943,
      "photograph": 6944,
      "photographer": 6945,
      "Aldrin": 6946,
      "Building": 6947,
      "Duke": 6948,
      "Denver": 6949,
      "Dolly": 6950,
      "Dumont": 6951,
      "Elizabeth": 6952,
      "Ferry": 6953,
      "Hoover": 6954,
      "Jacques": 6955,
      "Judson": 6956,
      "Lyndon": 6957,
      "Ouij": 6958,
      "Peters": 6959,
      "Party": 6960,
      "Parton": 6961,
      "Ronald": 6962,
      "Renaiss": 6963,
      "Sarge": 6964,
      "Teflon": 6965,
      "besides": 6966,
      "ballet": 6967,
      "balance": 6968,
      "boosters": 6969,
      "critic": 6970,
      "couple": 6971,
      "data": 6972,
      "database": 6973,
      "dinosaur": 6974,
      "dreams": 6975,
      "frequency": 6976,
      "harbor": 6977,
      "jersey": 6978,
      "linked": 6979,
      "nesian": 6980,
      "pressure": 6981,
      "parking": 6982,
      "rubber": 6983,
      "vineyard": 6984,
      "www": 6985,
      "wreck": 6986,
      "alternative": 6987,
      "streak": 6988,
      "transport": 6989,
      "importer": 6990,
      "importers": 6991,
      "uniforms": 6992,
      "debate": 6993,
      "devices": 6994,
      "construction": 6995,
      "constructed": 6996,
      "spelled": 6997,
      "spelling": 6998,
      "neurosurgeon": 6999,
      "geographic": 7000,
      "geographical": 7001,
      "Chapel": 7002,
      "Chilean": 7003,
      "Churchill": 7004,
      "bledon": 7005,
      "printing": 7006,
      "poisoning": 7007,
      "athletes": 7008,
      "athletic": 7009,
      "violins": 7010,
      "steamboat": 7011,
      "surrendered": 7012,
      "Princess": 7013,
      "magnetic": 7014,
      "legendary": 7015,
      "earthquake": 7016,
      "earthquakes": 7017,
      "regarding": 7018,
      "interesting": 7019,
      "distinction": 7020,
      "dropped": 7021,
      "holiday": 7022,
      "holidays": 7023,
      "hijacked": 7024,
      "Representative": 7025,
      "Representatives": 7026,
      "requirement": 7027,
      "requirements": 7028,
      "revolutionaries": 7029,
      "determined": 7030,
      "youngsters": 7031,
      "Napoleon": 7032,
      "alcoholic": 7033,
      "efficient": 7034,
      "inauguration": 7035,
      "inaugurated": 7036,
      "Bacall": 7037,
      "Bakery": 7038,
      "Cousteau": 7039,
      "Casey": 7040,
      "Creeps": 7041,
      "Cuba": 7042,
      "Ella": 7043,
      "Gilbert": 7044,
      "Gourd": 7045,
      "Government": 7046,
      "Huston": 7047,
      "Jolson": 7048,
      "Jungle": 7049,
      "Kinder": 7050,
      "Letter": 7051,
      "Livingstone": 7052,
      "Miami": 7053,
      "Model": 7054,
      "Namath": 7055,
      "Persian": 7056,
      "Prewitt": 7057,
      "Resear": 7058,
      "Rockefell": 7059,
      "Railway": 7060,
      "Rhodes": 7061,
      "Sicily": 7062,
      "Soldiers": 7063,
      "Smokey": 7064,
      "Supreme": 7065,
      "Skywalker": 7066,
      "Tolkien": 7067,
      "Temple": 7068,
      "Verne": 7069,
      "Viking": 7070,
      "Walter": 7071,
      "Wizard": 7072,
      "Zealand": 7073,
      "cousins": 7074,
      "cranberry": 7075,
      "dentist": 7076,
      "fusion": 7077,
      "grooves": 7078,
      "mutiny": 7079,
      "message": 7080,
      "narrates": 7081,
      "naval": 7082,
      "nominated": 7083,
      "osteoporosis": 7084,
      "pseudonym": 7085,
      "pineapple": 7086,
      "suspension": 7087,
      "split": 7088,
      "vessels": 7089,
      "wrestler": 7090,
      "hemisphere": 7091,
      "helium": 7092,
      "healthy": 7093,
      "initial": 7094,
      "analysis": 7095,
      "removed": 7096,
      "recommended": 7097,
      "recognize": 7098,
      "oriented": 7099,
      "stains": 7100,
      "strait": 7101,
      "stretch": 7102,
      "ingredient": 7103,
      "accident": 7104,
      "chromosome": 7105,
      "several": 7106,
      "tragedy": 7107,
      "commodity": 7108,
      "results": 7109,
      "connected": 7110,
      "conservation": 7111,
      "feudal": 7112,
      "hazmat": 7113,
      "problems": 7114,
      "provides": 7115,
      "cologne": 7116,
      "cooler": 7117,
      "exclus": 7118,
      "Stalin": 7119,
      "sympt": 7120,
      "Marciano": 7121,
      "particular": 7122,
      "Arkansas": 7123,
      "breakfast": 7124,
      "crickets": 7125,
      "Thanksgiving": 7126,
      "Lewis": 7127,
      "premiered": 7128,
      "Brandenburg": 7129,
      "Bradbury": 7130,
      "announced": 7131,
      "millimeter": 7132,
      "silversmiths": 7133,
      "consciousness": 7134,
      "specifically": 7135,
      "1779": 7136,
      "Barbados": 7137,
      "kidnaped": 7138,
      "employee": 7139,
      "Scottish": 7140,
      "Commandments": 7141,
      "Communist": 7142,
      "synonymous": 7143,
      "Mormons": 7144,
      "habitat": 7145,
      "zodiacal": 7146,
      "rabbit": 7147,
      "gymnastics": 7148,
      "Taiwanese": 7149,
      "category": 7150,
      "mosquito": 7151,
      "Afghanist": 7152,
      "Aztec": 7153,
      "Astaire": 7154,
      "Banana": 7155,
      "Bonnie": 7156,
      "Bourbon": 7157,
      "Banner": 7158,
      "Baltic": 7159,
      "Bunker": 7160,
      "Caesar": 7161,
      "Crokin": 7162,
      "Cairo": 7163,
      "Catholic": 7164,
      "Dutch": 7165,
      "Ezra": 7166,
      "Eskimo": 7167,
      "Eiffel": 7168,
      "Fatman": 7169,
      "Fidelis": 7170,
      "First": 7171,
      "Fantastic": 7172,
      "Fraze": 7173,
      "Falklands": 7174,
      "Front": 7175,
      "Gulliver": 7176,
      "Gatsby": 7177,
      "Gordon": 7178,
      "Global": 7179,
      "Hibernia": 7180,
      "Hastings": 7181,
      "Hepburn": 7182,
      "Hudson": 7183,
      "Hoffman": 7184,
      "Hampshire": 7185,
      "Hughes": 7186,
      "Huckleberry": 7187,
      "Ivy": 7188,
      "Iceland": 7189,
      "Jonathan": 7190,
      "Joplin": 7191,
      "Josie": 7192,
      "Jogis": 7193,
      "Jordan": 7194,
      "Kalahari": 7195,
      "Kafka": 7196,
      "Knox": 7197,
      "Kappa": 7198,
      "Khrushchev": 7199,
      "Lisa": 7200,
      "Lemmon": 7201,
      "Lloyd": 7202,
      "Liverpool": 7203,
      "Lagoon": 7204,
      "Munich": 7205,
      "Mongol": 7206,
      "Mighty": 7207,
      "Memphis": 7208,
      "Matterhorn": 7209,
      "Nelson": 7210,
      "Nintendo": 7211,
      "Olsen": 7212,
      "Operation": 7213,
      "Pussycats": 7214,
      "Pickering": 7215,
      "Pendulum": 7216,
      "Phys": 7217,
      "Pepsi": 7218,
      "Patricia": 7219,
      "Randolph": 7220,
      "Rhett": 7221,
      "Sinatra": 7222,
      "Singing": 7223,
      "Sigmund": 7224,
      "Simon": 7225,
      "Sistine": 7226,
      "Square": 7227,
      "Sierra": 7228,
      "Saturday": 7229,
      "Sydney": 7230,
      "Scruples": 7231,
      "Ukrain": 7232,
      "Ulysses": 7233,
      "Wrath": 7234,
      "Wyoming": 7235,
      "Wimbledon": 7236,
      "Yogi": 7237,
      "Yugoslav": 7238,
      "Yukon": 7239,
      "Zimbabwe": 7240,
      "benefits": 7241,
      "cucumber": 7242,
      "cubic": 7243,
      "eighth": 7244,
      "felt": 7245,
      "galaxy": 7246,
      "giraffe": 7247,
      "honorary": 7248,
      "jogging": 7249,
      "kangaroo": 7250,
      "nadze": 7251,
      "nursery": 7252,
      "piracy": 7253,
      "pneumonia": 7254,
      "pomegran": 7255,
      "parents": 7256,
      "ruin": 7257,
      "smoking": 7258,
      "sugar": 7259,
      "tenses": 7260,
      "tomato": 7261,
      "vowel": 7262,
      "vagina": 7263,
      "veterans": 7264,
      "wedding": 7265,
      "attempts": 7266,
      "Whitcomb": 7267,
      "aspartame": 7268,
      "environment": 7269,
      "enzymes": 7270,
      "alleged": 7271,
      "stereo": 7272,
      "amateur": 7273,
      "amphibians": 7274,
      "leaving": 7275,
      "leukemia": 7276,
      "tools": 7277,
      "administration": 7278,
      "rooftops": 7279,
      "seventeen": 7280,
      "seizure": 7281,
      "triangle": 7282,
      "trilogy": 7283,
      "beautiful": 7284,
      "molecules": 7285,
      "aghetti": 7286,
      "resistance": 7287,
      "deodorant": 7288,
      "dextropropox": 7289,
      "concentration": 7290,
      "octopus": 7291,
      "Indiglo": 7292,
      "artificial": 7293,
      "shampoo": 7294,
      "quadruplets": 7295,
      "Chappellet": 7296,
      "gravity": 7297,
      "embassy": 7298,
      "endangered": 7299,
      "available": 7300,
      "strontium": 7301,
      "Marlowe": 7302,
      "Arcadia": 7303,
      "Aristotle": 7304,
      "fibrosis": 7305,
      "viscosity": 7306,
      "hypertension": 7307,
      "Lebanon": 7308,
      "Individuals": 7309,
      "Colombia": 7310,
      "Brunei": 7311,
      "Connecticut": 7312,
      "Gehrig": 7313,
      "foreclosure": 7314,
      "Shevardnadze": 7315,
      "Scandinavian": 7316,
      "McKinley": 7317,
      "sundaes": 7318,
      "themselves": 7319,
      "mayonnaise": 7320,
      "comedienne": 7321,
      "Frankfurt": 7322,
      "daminozide": 7323,
      "Describe": 7324,
      "Philadelphia": 7325,
      "Trinidad": 7326,
      "helicopter": 7327,
      "Approximately": 7328,
      "Hillbillies": 7329,
      "diminutive": 7330,
      "Ouija": 7331,
      "Renaissance": 7332,
      "Rockefeller": 7333,
      "Afghanistan": 7334,
      "Crokinole": 7335,
      "dextropropoxyphen": 7336,
      "'-": 7337,
      "-?": 7338,
      ".-": 7339,
      "01": 7340,
      "1st": 7341,
      "118": 7342,
      "2O": 7343,
      "219": 7344,
      "227": 7345,
      "33": 7346,
      "38": 7347,
      "313": 7348,
      "327": 7349,
      "43": 7350,
      "45": 7351,
      "4C": 7352,
      "4th": 7353,
      "43rd": 7354,
      "52": 7355,
      "56": 7356,
      "59": 7357,
      "50s": 7358,
      "528": 7359,
      "576": 7360,
      "54C": 7361,
      "61": 7362,
      "62": 7363,
      "64": 7364,
      "67": 7365,
      "600": 7366,
      "70": 7367,
      "71": 7368,
      "72": 7369,
      "78": 7370,
      "7th": 7371,
      "755": 7372,
      "732": 7373,
      "737": 7374,
      "84": 7375,
      "85": 7376,
      "89": 7377,
      "8th": 7378,
      "824": 7379,
      "836": 7380,
      "90": 7381,
      "95": 7382,
      "9th": 7383,
      "924": 7384,
      "AC": 7385,
      "AD": 7386,
      "AF": 7387,
      "AN": 7388,
      "AQ": 7389,
      "AR": 7390,
      "AS": 7391,
      "AY": 7392,
      "AZ": 7393,
      "A_": 7394,
      "Ac": 7395,
      "Ae": 7396,
      "Ay": 7397,
      "Aes": 7398,
      "Ado": 7399,
      "Ash": 7400,
      "Agr": 7401,
      "Abu": 7402,
      "Aven": 7403,
      "Aud": 7404,
      "Aust": 7405,
      "Abig": 7406,
      "Ask": 7407,
      "Apar": 7408,
      "Ayer": 7409,
      "Actor": 7410,
      "Adam": 7411,
      "Aval": 7412,
      "Athen": 7413,
      "Aden": 7414,
      "Astor": 7415,
      "Again": 7416,
      "ACP": 7417,
      "Astro": 7418,
      "AFT": 7419,
      "Aviv": 7420,
      "Alyss": 7421,
      "AOL": 7422,
      "B1": 7423,
      "BO": 7424,
      "BS": 7425,
      "Bj": 7426,
      "Bin": 7427,
      "Bis": 7428,
      "Bor": 7429,
      "Bit": 7430,
      "Bic": 7431,
      "Band": 7432,
      "Bent": 7433,
      "Best": 7434,
      "Boo": 7435,
      "Bul": 7436,
      "Bate": 7437,
      "Bun": 7438,
      "Bly": 7439,
      "Bigh": 7440,
      "Bian": 7441,
      "Buc": 7442,
      "Bess": 7443,
      "Bend": 7444,
      "Bren": 7445,
      "Bary": 7446,
      "Book": 7447,
      "Bang": 7448,
      "Bry": 7449,
      "Biss": 7450,
      "Bio": 7451,
      "Blo": 7452,
      "Bust": 7453,
      "Bask": 7454,
      "Bark": 7455,
      "Bug": 7456,
      "Borg": 7457,
      "Bank": 7458,
      "B12": 7459,
      "Bord": 7460,
      "Baret": 7461,
      "Bears": 7462,
      "Baff": 7463,
      "Bunch": 7464,
      "BIO": 7465,
      "Boris": 7466,
      "Barton": 7467,
      "Brian": 7468,
      "CE": 7469,
      "Ce": 7470,
      "Cin": 7471,
      "Cer": 7472,
      "Cid": 7473,
      "Cand": 7474,
      "Cel": 7475,
      "Cay": 7476,
      "Cur": 7477,
      "Cab": 7478,
      "Cli": 7479,
      "Cly": 7480,
      "Cind": 7481,
      "Cri": 7482,
      "Cos": 7483,
      "Caw": 7484,
      "Cra": 7485,
      "Cass": 7486,
      "Cher": 7487,
      "Cav": 7488,
      "Cook": 7489,
      "Coll": 7490,
      "Cors": 7491,
      "Chest": 7492,
      "Clin": 7493,
      "Cuck": 7494,
      "Coy": 7495,
      "Coney": 7496,
      "Cave": 7497,
      "Cather": 7498,
      "Catch": 7499,
      "Cze": 7500,
      "Cats": 7501,
      "Clear": 7502,
      "Count": 7503,
      "Cush": 7504,
      "Crow": 7505,
      "Cald": 7506,
      "Caine": 7507,
      "Cert": 7508,
      "Chero": 7509,
      "Cinc": 7510,
      "CSI": 7511,
      "Ches": 7512,
      "Cream": 7513,
      "Citiz": 7514,
      "Coffee": 7515,
      "Coward": 7516,
      "Candle": 7517,
      "Crows": 7518,
      "CBS": 7519,
      "DL": 7520,
      "Da": 7521,
      "Dor": 7522,
      "Dame": 7523,
      "Dur": 7524,
      "Dear": 7525,
      "Dres": 7526,
      "Dart": 7527,
      "Dri": 7528,
      "Down": 7529,
      "Dian": 7530,
      "Daw": 7531,
      "Dip": 7532,
      "Dial": 7533,
      "Dub": 7534,
      "Denn": 7535,
      "Dock": 7536,
      "Dough": 7537,
      "Dud": 7538,
      "Dict": 7539,
      "Dix": 7540,
      "Dors": 7541,
      "Dust": 7542,
      "Dod": 7543,
      "Dali": 7544,
      "Doy": 7545,
      "During": 7546,
      "Dax": 7547,
      "Diver": 7548,
      "Dox": 7549,
      "Drip": 7550,
      "Dandy": 7551,
      "Dost": 7552,
      "Dubl": 7553,
      "Dung": 7554,
      "Dixon": 7555,
      "Daws": 7556,
      "Dennis": 7557,
      "Dyl": 7558,
      "Dita": 7559,
      "Dyn": 7560,
      "Dream": 7561,
      "Diana": 7562,
      "Dinner": 7563,
      "DEE": 7564,
      "Doris": 7565,
      "DGE": 7566,
      "Detro": 7567,
      "Dirk": 7568,
      "Dannon": 7569,
      "DAY": 7570,
      "EG": 7571,
      "EK": 7572,
      "EL": 7573,
      "Et": 7574,
      "Eu": 7575,
      "Ear": 7576,
      "Eas": 7577,
      "Edo": 7578,
      "Eth": 7579,
      "Eld": 7580,
      "Eun": 7581,
      "Econ": 7582,
      "Ely": 7583,
      "Esp": 7584,
      "Eri": 7585,
      "Equ": 7586,
      "Eup": 7587,
      "Elong": 7588,
      "Edis": 7589,
      "Ery": 7590,
      "Emil": 7591,
      "Ener": 7592,
      "Eric": 7593,
      "Esqu": 7594,
      "Econom": 7595,
      "Esa": 7596,
      "Esper": 7597,
      "Eston": 7598,
      "ECR": 7599,
      "Either": 7600,
      "Enemy": 7601,
      "Eckley": 7602,
      "FK": 7603,
      "FM": 7604,
      "FU": 7605,
      "Fr": 7606,
      "Fin": 7607,
      "Fis": 7608,
      "Fon": 7609,
      "Fas": 7610,
      "Fle": 7611,
      "Fig": 7612,
      "Fur": 7613,
      "Ful": 7614,
      "Fate": 7615,
      "Fun": 7616,
      "Fab": 7617,
      "Fri": 7618,
      "Fine": 7619,
      "Fem": 7620,
      "Fick": 7621,
      "Fav": 7622,
      "Fang": 7623,
      "Flet": 7624,
      "Frit": 7625,
      "Fool": 7626,
      "Fountain": 7627,
      "Fah": 7628,
      "Fey": 7629,
      "Fied": 7630,
      "Father": 7631,
      "Fury": 7632,
      "Frel": 7633,
      "Fost": 7634,
      "Fats": 7635,
      "Flight": 7636,
      "Fiest": 7637,
      "Fund": 7638,
      "Final": 7639,
      "Funk": 7640,
      "Favorite": 7641,
      "Font": 7642,
      "F25": 7643,
      "Field": 7644,
      "Future": 7645,
      "Fodor": 7646,
      "FCC": 7647,
      "Faith": 7648,
      "Fij": 7649,
      "Frick": 7650,
      "Felic": 7651,
      "Folies": 7652,
      "G2": 7653,
      "G7": 7654,
      "GA": 7655,
      "GH": 7656,
      "GO": 7657,
      "GU": 7658,
      "Gh": 7659,
      "Gw": 7660,
      "Gy": 7661,
      "Gin": 7662,
      "Git": 7663,
      "Gle": 7664,
      "Gom": 7665,
      "Gol": 7666,
      "Game": 7667,
      "Gall": 7668,
      "Gest": 7669,
      "Gim": 7670,
      "Gun": 7671,
      "Gri": 7672,
      "Gut": 7673,
      "Gos": 7674,
      "Gard": 7675,
      "Gra": 7676,
      "Gem": 7677,
      "Gren": 7678,
      "Giz": 7679,
      "Gran": 7680,
      "Gust": 7681,
      "Gina": 7682,
      "Gaz": 7683,
      "Garth": 7684,
      "Gross": 7685,
      "Golf": 7686,
      "Gib": 7687,
      "Greg": 7688,
      "Grange": 7689,
      "Ghost": 7690,
      "Gaul": 7691,
      "Glam": 7692,
      "Goes": 7693,
      "Gael": 7694,
      "Gume": 7695,
      "Glas": 7696,
      "Gabel": 7697,
      "Garden": 7698,
      "Gaja": 7699,
      "Giant": 7700,
      "Globe": 7701,
      "Ho": 7702,
      "Hin": 7703,
      "Han": 7704,
      "Hes": 7705,
      "Has": 7706,
      "Hou": 7707,
      "Hir": 7708,
      "Hur": 7709,
      "Hun": 7710,
      "Hong": 7711,
      "Hour": 7712,
      "Hell": 7713,
      "Hort": 7714,
      "Hound": 7715,
      "Hold": 7716,
      "Hook": 7717,
      "Hub": 7718,
      "Horn": 7719,
      "Human": 7720,
      "Huss": 7721,
      "Hoy": 7722,
      "Haz": 7723,
      "Have": 7724,
      "Hope": 7725,
      "Hallow": 7726,
      "Hockey": 7727,
      "Hux": 7728,
      "Houd": 7729,
      "HTM": 7730,
      "Hilton": 7731,
      "Histor": 7732,
      "Hundred": 7733,
      "H2O": 7734,
      "HDL": 7735,
      "IS": 7736,
      "IT": 7737,
      "IV": 7738,
      "Id": 7739,
      "Ig": 7740,
      "Ian": 7741,
      "Iow": 7742,
      "Idi": 7743,
      "Ish": 7744,
      "Iran": 7745,
      "Igu": 7746,
      "Ida": 7747,
      "Imam": 7748,
      "Ivan": 7749,
      "Ipan": 7750,
      "ISD": 7751,
      "IRL": 7752,
      "JJ": 7753,
      "Jen": 7754,
      "Jur": 7755,
      "Jong": 7756,
      "Jere": 7757,
      "Jav": 7758,
      "Jenn": 7759,
      "Jinn": 7760,
      "Jett": 7761,
      "JDR": 7762,
      "Jenna": 7763,
      "JES": 7764,
      "Jazz": 7765,
      "JFK": 7766,
      "Kw": 7767,
      "Kor": 7768,
      "Kam": 7769,
      "Kle": 7770,
      "Kay": 7771,
      "Kra": 7772,
      "Kip": 7773,
      "Kry": 7774,
      "Kink": 7775,
      "Kod": 7776,
      "Khy": 7777,
      "Kash": 7778,
      "Keat": 7779,
      "Knick": 7780,
      "Kubl": 7781,
      "Kai": 7782,
      "Know": 7783,
      "Knight": 7784,
      "Kram": 7785,
      "Kreme": 7786,
      "Klan": 7787,
      "Kane": 7788,
      "Klon": 7789,
      "Kores": 7790,
      "Karen": 7791,
      "Kemper": 7792,
      "Kahn": 7793,
      "Khan": 7794,
      "Klux": 7795,
      "Krem": 7796,
      "Kitchen": 7797,
      "Kelly": 7798,
      "Kurt": 7799,
      "Keller": 7800,
      "KDGE": 7801,
      "LL": 7802,
      "LM": 7803,
      "LP": 7804,
      "LU": 7805,
      "Ly": 7806,
      "Lan": 7807,
      "Len": 7808,
      "Lom": 7809,
      "Land": 7810,
      "Lig": 7811,
      "Lay": 7812,
      "Lear": 7813,
      "Lab": 7814,
      "List": 7815,
      "Lut": 7816,
      "Lour": 7817,
      "Lhas": 7818,
      "Light": 7819,
      "Lav": 7820,
      "Look": 7821,
      "Lang": 7822,
      "Lime": 7823,
      "Lenn": 7824,
      "Lud": 7825,
      "Lust": 7826,
      "Louse": 7827,
      "Lost": 7828,
      "Lai": 7829,
      "Lund": 7830,
      "Lamb": 7831,
      "Lov": 7832,
      "Lenny": 7833,
      "LCD": 7834,
      "Lunt": 7835,
      "Langer": 7836,
      "Lane": 7837,
      "Loco": 7838,
      "Lilly": 7839,
      "Label": 7840,
      "Lagos": 7841,
      "M3": 7842,
      "MF": 7843,
      "MS": 7844,
      "MV": 7845,
      "Mh": 7846,
      "Mt": 7847,
      "Mou": 7848,
      "Mit": 7849,
      "Mam": 7850,
      "Mand": 7851,
      "Mol": 7852,
      "Mir": 7853,
      "Mall": 7854,
      "Main": 7855,
      "Mast": 7856,
      "Mia": 7857,
      "Mage": 7858,
      "Mort": 7859,
      "Mem": 7860,
      "Made": 7861,
      "Mach": 7862,
      "Mide": 7863,
      "Mile": 7864,
      "MTV": 7865,
      "Mouth": 7866,
      "Mud": 7867,
      "Muss": 7868,
      "Maz": 7869,
      "Matt": 7870,
      "Mah": 7871,
      "Mey": 7872,
      "Mank": 7873,
      "Mandy": 7874,
      "M16": 7875,
      "Morgan": 7876,
      "Milt": 7877,
      "Mason": 7878,
      "Malt": 7879,
      "Meth": 7880,
      "Mpil": 7881,
      "Material": 7882,
      "Mama": 7883,
      "Morning": 7884,
      "Malta": 7885,
      "MLA": 7886,
      "MGM": 7887,
      "Mules": 7888,
      "Madding": 7889,
      "Megan": 7890,
      "NS": 7891,
      "NT": 7892,
      "NY": 7893,
      "Nar": 7894,
      "Nit": 7895,
      "Nur": 7896,
      "Nab": 7897,
      "Num": 7898,
      "Nut": 7899,
      "Nant": 7900,
      "Nure": 7901,
      "Nick": 7902,
      "Nip": 7903,
      "Nase": 7904,
      "Names": 7905,
      "Naut": 7906,
      "Nina": 7907,
      "Natch": 7908,
      "Nones": 7909,
      "Nik": 7910,
      "Niel": 7911,
      "Nancy": 7912,
      "Niger": 7913,
      "Nails": 7914,
      "Ninet": 7915,
      "Nathan": 7916,
      "Nicol": 7917,
      "Nasty": 7918,
      "NECR": 7919,
      "OJ": 7920,
      "OW": 7921,
      "OZ": 7922,
      "Of": 7923,
      "Os": 7924,
      "Ox": 7925,
      "Oom": 7926,
      "Oop": 7927,
      "Oak": 7928,
      "Oct": 7929,
      "Out": 7930,
      "Obo": 7931,
      "One": 7932,
      "Oles": 7933,
      "Ody": 7934,
      "Olive": 7935,
      "Oss": 7936,
      "Oliv": 7937,
      "Omn": 7938,
      "Oyl": 7939,
      "Ozy": 7940,
      "OSI": 7941,
      "Odin": 7942,
      "Ocho": 7943,
      "OAS": 7944,
      "PC": 7945,
      "PN": 7946,
      "PS": 7947,
      "Pi": 7948,
      "Ps": 7949,
      "Pu": 7950,
      "Phe": 7951,
      "Pat": 7952,
      "Pin": 7953,
      "Pre": 7954,
      "Pes": 7955,
      "Ple": 7956,
      "Pom": 7957,
      "Ping": 7958,
      "Pent": 7959,
      "Pad": 7960,
      "Poc": 7961,
      "Ply": 7962,
      "Pot": 7963,
      "Past": 7964,
      "Pos": 7965,
      "Pie": 7966,
      "Puc": 7967,
      "Pere": 7968,
      "Port": 7969,
      "Pound": 7970,
      "Piv": 7971,
      "Piz": 7972,
      "Press": 7973,
      "Pook": 7974,
      "Pang": 7975,
      "Pep": 7976,
      "Pence": 7977,
      "Piss": 7978,
      "Pict": 7979,
      "Power": 7980,
      "Pale": 7981,
      "Pamp": 7982,
      "Pug": 7983,
      "Porg": 7984,
      "Patt": 7985,
      "Pox": 7986,
      "Prel": 7987,
      "Pines": 7988,
      "Prest": 7989,
      "Pib": 7990,
      "Ponce": 7991,
      "Paine": 7992,
      "Poly": 7993,
      "Pump": 7994,
      "Pots": 7995,
      "Pops": 7996,
      "PSI": 7997,
      "Paj": 7998,
      "Picts": 7999,
      "Pizza": 8000,
      "Pagan": 8001,
      "Pistol": 8002,
      "POS": 8003,
      "Pampl": 8004,
      "Pirate": 8005,
      "Peller": 8006,
      "Puppy": 8007,
      "POW": 8008,
      "QL": 8009,
      "Qat": 8010,
      "Qin": 8011,
      "RA": 8012,
      "RI": 8013,
      "Ra": 8014,
      "Ri": 8015,
      "Rq": 8016,
      "Rou": 8017,
      "Rid": 8018,
      "Rum": 8019,
      "Rain": 8020,
      "Rated": 8021,
      "Right": 8022,
      "Rous": 8023,
      "Rip": 8024,
      "Rif": 8025,
      "Raz": 8026,
      "Rah": 8027,
      "Rann": 8028,
      "Rost": 8029,
      "Rude": 8030,
      "Rush": 8031,
      "Rico": 8032,
      "Rita": 8033,
      "RCD": 8034,
      "Rolfe": 8035,
      "Racet": 8036,
      "RMO": 8037,
      "RCA": 8038,
      "Rios": 8039,
      "Raging": 8040,
      "Raja": 8041,
      "Rwand": 8042,
      "Rams": 8043,
      "Ringo": 8044,
      "Retro": 8045,
      "Regan": 8046,
      "SR": 8047,
      "SV": 8048,
      "Sa": 8049,
      "Sb": 8050,
      "Sk": 8051,
      "Sr": 8052,
      "Sy": 8053,
      "Sat": 8054,
      "Son": 8055,
      "Sit": 8056,
      "Sid": 8057,
      "Say": 8058,
      "Sur": 8059,
      "Song": 8060,
      "Sine": 8061,
      "Swe": 8062,
      "Sex": 8063,
      "Saw": 8064,
      "Sound": 8065,
      "Sip": 8066,
      "Sau": 8067,
      "Sav": 8068,
      "Senn": 8069,
      "Sele": 8070,
      "Sno": 8071,
      "Sond": 8072,
      "Sark": 8073,
      "Soft": 8074,
      "Sally": 8075,
      "Sah": 8076,
      "Salk": 8077,
      "Sons": 8078,
      "Sony": 8079,
      "Snick": 8080,
      "Slight": 8081,
      "Sult": 8082,
      "Self": 8083,
      "Sund": 8084,
      "Small": 8085,
      "Sincl": 8086,
      "Strad": 8087,
      "Slow": 8088,
      "Sys": 8089,
      "Sears": 8090,
      "Shost": 8091,
      "Sny": 8092,
      "Scient": 8093,
      "Smel": 8094,
      "Smart": 8095,
      "Snap": 8096,
      "Syn": 8097,
      "Strip": 8098,
      "SVHS": 8099,
      "Soul": 8100,
      "Sunn": 8101,
      "SHI": 8102,
      "Sisk": 8103,
      "Saudi": 8104,
      "SOS": 8105,
      "Selle": 8106,
      "Saks": 8107,
      "Sellers": 8108,
      "Strait": 8109,
      "SCSI": 8110,
      "SQL": 8111,
      "Tu": 8112,
      "Tz": 8113,
      "Tat": 8114,
      "Tes": 8115,
      "Tas": 8116,
      "Tow": 8117,
      "Tel": 8118,
      "Tir": 8119,
      "Test": 8120,
      "Top": 8121,
      "Tul": 8122,
      "Tak": 8123,
      "Tab": 8124,
      "Tha": 8125,
      "Twe": 8126,
      "Tuc": 8127,
      "Tell": 8128,
      "Tade": 8129,
      "This": 8130,
      "Tail": 8131,
      "Tub": 8132,
      "Torn": 8133,
      "Tele": 8134,
      "Taf": 8135,
      "Tamp": 8136,
      "Tuss": 8137,
      "Tax": 8138,
      "Table": 8139,
      "Talk": 8140,
      "Tennis": 8141,
      "Tasket": 8142,
      "Tears": 8143,
      "Tiger": 8144,
      "Toul": 8145,
      "Tender": 8146,
      "Tiny": 8147,
      "Tiff": 8148,
      "Tisk": 8149,
      "TFT": 8150,
      "Tetr": 8151,
      "Use": 8152,
      "Upl": 8153,
      "Uber": 8154,
      "Upr": 8155,
      "User": 8156,
      "Usen": 8157,
      "UOL": 8158,
      "Ugly": 8159,
      "V1": 8160,
      "VB": 8161,
      "VW": 8162,
      "Vl": 8163,
      "Vis": 8164,
      "Vas": 8165,
      "Vic": 8166,
      "Vich": 8167,
      "Vill": 8168,
      "Via": 8169,
      "Vide": 8170,
      "Vict": 8171,
      "Voy": 8172,
      "Vince": 8173,
      "Vla": 8174,
      "Vera": 8175,
      "Vene": 8176,
      "VDR": 8177,
      "Veh": 8178,
      "Vocal": 8179,
      "Wu": 8180,
      "Wis": 8181,
      "Was": 8182,
      "Wit": 8183,
      "Wid": 8184,
      "Wing": 8185,
      "Wig": 8186,
      "With": 8187,
      "Were": 8188,
      "Wass": 8189,
      "Wend": 8190,
      "Wade": 8191,
      "Wang": 8192,
      "Wide": 8193,
      "Writ": 8194,
      "Wins": 8195,
      "Wile": 8196,
      "Woman": 8197,
      "Waver": 8198,
      "Wines": 8199,
      "Waugh": 8200,
      "Walt": 8201,
      "Wald": 8202,
      "Wlady": 8203,
      "Witch": 8204,
      "Wences": 8205,
      "Waco": 8206,
      "Wanna": 8207,
      "Wemble": 8208,
      "XV": 8209,
      "Yes": 8210,
      "Yar": 8211,
      "Yom": 8212,
      "Yid": 8213,
      "Yoo": 8214,
      "Yak": 8215,
      "Your": 8216,
      "Yous": 8217,
      "Youth": 8218,
      "Yale": 8219,
      "Yeat": 8220,
      "Yank": 8221,
      "Ybar": 8222,
      "Yester": 8223,
      "Yemen": 8224,
      "Zat": 8225,
      "Zor": 8226,
      "Zol": 8227,
      "Zion": 8228,
      "Zap": 8229,
      "ZUS": 8230,
      "Zamb": 8231,
      "Zenger": 8232,
      "Zadora": 8233,
      "ae": 8234,
      "aq": 8235,
      "aal": 8236,
      "aic": 8237,
      "aol": 8238,
      "adoes": 8239,
      "afr": 8240,
      "aist": 8241,
      "aqu": 8242,
      "auc": 8243,
      "aort": 8244,
      "avel": 8245,
      "aign": 8246,
      "aise": 8247,
      "ahead": 8248,
      "aism": 8249,
      "ault": 8250,
      "aero": 8251,
      "aunt": 8252,
      "ba": 8253,
      "bf": 8254,
      "bk": 8255,
      "bic": 8256,
      "bom": 8257,
      "bid": 8258,
      "bol": 8259,
      "bac": 8260,
      "bare": 8261,
      "bbe": 8262,
      "bag": 8263,
      "boc": 8264,
      "bri": 8265,
      "bast": 8266,
      "bine": 8267,
      "bos": 8268,
      "bith": 8269,
      "bage": 8270,
      "bish": 8271,
      "bure": 8272,
      "bice": 8273,
      "bip": 8274,
      "biz": 8275,
      "bang": 8276,
      "bors": 8277,
      "breat": 8278,
      "bible": 8279,
      "bik": 8280,
      "bats": 8281,
      "bache": 8282,
      "bounds": 8283,
      "bbers": 8284,
      "bden": 8285,
      "bene": 8286,
      "bends": 8287,
      "banger": 8288,
      "bbie": 8289,
      "bureau": 8290,
      "bbles": 8291,
      "bails": 8292,
      "billi": 8293,
      "boss": 8294,
      "brenia": 8295,
      "baja": 8296,
      "bucks": 8297,
      "cd": 8298,
      "cw": 8299,
      "cas": 8300,
      "cen": 8301,
      "cing": 8302,
      "cet": 8303,
      "cay": 8304,
      "cus": 8305,
      "cact": 8306,
      "cake": 8307,
      "cend": 8308,
      "cite": 8309,
      "cav": 8310,
      "cough": 8311,
      "cuse": 8312,
      "cust": 8313,
      "ccess": 8314,
      "coot": 8315,
      "cument": 8316,
      "cival": 8317,
      "cured": 8318,
      "cini": 8319,
      "casc": 8320,
      "cunn": 8321,
      "cube": 8322,
      "clif": 8323,
      "cuits": 8324,
      "cetr": 8325,
      "dl": 8326,
      "du": 8327,
      "dor": 8328,
      "ded": 8329,
      "dic": 8330,
      "dand": 8331,
      "dare": 8332,
      "dir": 8333,
      "dun": 8334,
      "dart": 8335,
      "duc": 8336,
      "dated": 8337,
      "dice": 8338,
      "due": 8339,
      "dair": 8340,
      "dough": 8341,
      "dwar": 8342,
      "dust": 8343,
      "duck": 8344,
      "dual": 8345,
      "ddle": 8346,
      "dumb": 8347,
      "dunk": 8348,
      "dwell": 8349,
      "dication": 8350,
      "darts": 8351,
      "dbf": 8352,
      "ei": 8353,
      "eor": 8354,
      "eing": 8355,
      "eve": 8356,
      "eur": 8357,
      "eag": 8358,
      "epl": 8359,
      "eers": 8360,
      "emer": 8361,
      "ecl": 8362,
      "even": 8363,
      "europe": 8364,
      "eons": 8365,
      "evid": 8366,
      "eels": 8367,
      "emotion": 8368,
      "ebb": 8369,
      "eclip": 8370,
      "ecolog": 8371,
      "ecz": 8372,
      "fu": 8373,
      "fid": 8374,
      "fto": 8375,
      "foo": 8376,
      "fab": 8377,
      "ffr": 8378,
      "fuc": 8379,
      "fade": 8380,
      "fog": 8381,
      "fred": 8382,
      "fond": 8383,
      "fountain": 8384,
      "fowl": 8385,
      "fable": 8386,
      "fboard": 8387,
      "fession": 8388,
      "fund": 8389,
      "freen": 8390,
      "fdom": 8391,
      "faster": 8392,
      "faul": 8393,
      "fellow": 8394,
      "foul": 8395,
      "fume": 8396,
      "fences": 8397,
      "fensive": 8398,
      "filling": 8399,
      "flier": 8400,
      "fault": 8401,
      "gis": 8402,
      "gou": 8403,
      "gow": 8404,
      "gel": 8405,
      "gun": 8406,
      "gart": 8407,
      "gia": 8408,
      "gie": 8409,
      "gown": 8410,
      "gaw": 8411,
      "gland": 8412,
      "gass": 8413,
      "gary": 8414,
      "gress": 8415,
      "gans": 8416,
      "gmar": 8417,
      "gust": 8418,
      "gather": 8419,
      "gandy": 8420,
      "gross": 8421,
      "goose": 8422,
      "goul": 8423,
      "gopher": 8424,
      "gills": 8425,
      "globe": 8426,
      "hon": 8427,
      "hic": 8428,
      "hom": 8429,
      "houn": 8430,
      "hop": 8431,
      "hak": 8432,
      "hart": 8433,
      "hos": 8434,
      "hill": 8435,
      "hie": 8436,
      "hack": 8437,
      "hound": 8438,
      "hive": 8439,
      "hits": 8440,
      "hog": 8441,
      "hans": 8442,
      "hang": 8443,
      "hide": 8444,
      "hates": 8445,
      "hust": 8446,
      "hatt": 8447,
      "hik": 8448,
      "hib": 8449,
      "hives": 8450,
      "hope": 8451,
      "hula": 8452,
      "hump": 8453,
      "hombo": 8454,
      "hroom": 8455,
      "hrates": 8456,
      "hmann": 8457,
      "hocks": 8458,
      "hdad": 8459,
      "hiding": 8460,
      "hannon": 8461,
      "hundred": 8462,
      "ii": 8463,
      "iar": 8464,
      "ias": 8465,
      "iac": 8466,
      "iation": 8467,
      "ires": 8468,
      "iot": 8469,
      "ience": 8470,
      "iature": 8471,
      "ially": 8472,
      "iations": 8473,
      "ibus": 8474,
      "ients": 8475,
      "iopia": 8476,
      "iennes": 8477,
      "iola": 8478,
      "ialled": 8479,
      "ibute": 8480,
      "ja": 8481,
      "jan": 8482,
      "jar": 8483,
      "jal": 8484,
      "jel": 8485,
      "jina": 8486,
      "jave": 8487,
      "jury": 8488,
      "jets": 8489,
      "jero": 8490,
      "jamin": 8491,
      "jaro": 8492,
      "jokes": 8493,
      "jazz": 8494,
      "kat": 8495,
      "kon": 8496,
      "ket": 8497,
      "kite": 8498,
      "kins": 8499,
      "ktop": 8500,
      "kings": 8501,
      "kina": 8502,
      "ksw": 8503,
      "kah": 8504,
      "kung": 8505,
      "kney": 8506,
      "kroy": 8507,
      "kka": 8508,
      "kitchen": 8509,
      "kusen": 8510,
      "kutsk": 8511,
      "khak": 8512,
      "lu": 8513,
      "lis": 8514,
      "lic": 8515,
      "lent": 8516,
      "lich": 8517,
      "lut": 8518,
      "lass": 8519,
      "lace": 8520,
      "later": 8521,
      "lakes": 8522,
      "laid": 8523,
      "lict": 8524,
      "lug": 8525,
      "lustr": 8526,
      "lative": 8527,
      "laugh": 8528,
      "lists": 8529,
      "lims": 8530,
      "lucky": 8531,
      "lump": 8532,
      "lends": 8533,
      "laces": 8534,
      "loud": 8535,
      "lided": 8536,
      "lender": 8537,
      "moun": 8538,
      "mak": 8539,
      "mum": 8540,
      "mone": 8541,
      "mour": 8542,
      "mip": 8543,
      "mary": 8544,
      "mates": 8545,
      "mals": 8546,
      "mint": 8547,
      "mower": 8548,
      "mature": 8549,
      "mful": 8550,
      "mally": 8551,
      "mash": 8552,
      "mium": 8553,
      "mount": 8554,
      "mstone": 8555,
      "mune": 8556,
      "moly": 8557,
      "munch": 8558,
      "mified": 8559,
      "mometer": 8560,
      "mules": 8561,
      "mapping": 8562,
      "nd": 8563,
      "nst": 8564,
      "nel": 8565,
      "nman": 8566,
      "nate": 8567,
      "nun": 8568,
      "nab": 8569,
      "ners": 8570,
      "none": 8571,
      "nos": 8572,
      "nail": 8573,
      "nob": 8574,
      "nik": 8575,
      "nished": 8576,
      "nears": 8577,
      "nstor": 8578,
      "nails": 8579,
      "nford": 8580,
      "nological": 8581,
      "natives": 8582,
      "ninj": 8583,
      "nosaur": 8584,
      "nih": 8585,
      "noodle": 8586,
      "nmower": 8587,
      "oic": 8588,
      "oom": 8589,
      "oters": 8590,
      "oath": 8591,
      "oons": 8592,
      "oev": 8593,
      "odies": 8594,
      "pi": 8595,
      "pu": 8596,
      "phe": 8597,
      "pes": 8598,
      "pto": 8599,
      "pand": 8600,
      "pac": 8601,
      "pad": 8602,
      "pall": 8603,
      "pers": 8604,
      "pha": 8605,
      "pill": 8606,
      "pies": 8607,
      "pper": 8608,
      "pact": 8609,
      "pian": 8610,
      "pard": 8611,
      "pant": 8612,
      "pack": 8613,
      "pure": 8614,
      "pace": 8615,
      "pical": 8616,
      "pren": 8617,
      "pail": 8618,
      "pson": 8619,
      "pub": 8620,
      "pno": 8621,
      "pock": 8622,
      "pens": 8623,
      "pond": 8624,
      "pale": 8625,
      "pug": 8626,
      "pso": 8627,
      "pings": 8628,
      "pony": 8629,
      "psk": 8630,
      "peng": 8631,
      "pines": 8632,
      "pimp": 8633,
      "penter": 8634,
      "pastr": 8635,
      "punk": 8636,
      "pictor": 8637,
      "phet": 8638,
      "paste": 8639,
      "punch": 8640,
      "pberry": 8641,
      "pcats": 8642,
      "pistol": 8643,
      "puppy": 8644,
      "poodle": 8645,
      "rs": 8646,
      "ras": 8647,
      "rou": 8648,
      "rig": 8649,
      "rus": 8650,
      "rag": 8651,
      "rist": 8652,
      "rill": 8653,
      "rake": 8654,
      "rout": 8655,
      "rack": 8656,
      "rice": 8657,
      "rical": 8658,
      "rower": 8659,
      "rally": 8660,
      "ruck": 8661,
      "rina": 8662,
      "rons": 8663,
      "rayed": 8664,
      "ridge": 8665,
      "rative": 8666,
      "rays": 8667,
      "roud": 8668,
      "ranged": 8669,
      "rural": 8670,
      "rhombo": 8671,
      "sed": 8672,
      "sou": 8673,
      "sst": 8674,
      "sit": 8675,
      "sand": 8676,
      "swas": 8677,
      "sac": 8678,
      "sul": 8679,
      "scan": 8680,
      "sart": 8681,
      "sine": 8682,
      "sard": 8683,
      "sage": 8684,
      "sour": 8685,
      "sess": 8686,
      "ske": 8687,
      "sword": 8688,
      "sue": 8689,
      "sins": 8690,
      "sday": 8691,
      "scor": 8692,
      "scy": 8693,
      "slang": 8694,
      "slaw": 8695,
      "soy": 8696,
      "sax": 8697,
      "sque": 8698,
      "sium": 8699,
      "sought": 8700,
      "sull": 8701,
      "sung": 8702,
      "schem": 8703,
      "simp": 8704,
      "session": 8705,
      "scare": 8706,
      "sely": 8707,
      "smile": 8708,
      "somen": 8709,
      "sula": 8710,
      "swee": 8711,
      "sberg": 8712,
      "ssey": 8713,
      "sired": 8714,
      "sulf": 8715,
      "sinning": 8716,
      "saves": 8717,
      "sucks": 8718,
      "tv": 8719,
      "tat": 8720,
      "tent": 8721,
      "tel": 8722,
      "tap": 8723,
      "ties": 8724,
      "taw": 8725,
      "tland": 8726,
      "tical": 8727,
      "tide": 8728,
      "tower": 8729,
      "tuse": 8730,
      "tics": 8731,
      "tcy": 8732,
      "task": 8733,
      "tamp": 8734,
      "tire": 8735,
      "tied": 8736,
      "tann": 8737,
      "tank": 8738,
      "tung": 8739,
      "taking": 8740,
      "twee": 8741,
      "tape": 8742,
      "treason": 8743,
      "tender": 8744,
      "tiny": 8745,
      "tiles": 8746,
      "tunnel": 8747,
      "taken": 8748,
      "tissue": 8749,
      "taught": 8750,
      "tackle": 8751,
      "tika": 8752,
      "tbk": 8753,
      "uf": 8754,
      "uo": 8755,
      "uv": 8756,
      "uas": 8757,
      "uto": 8758,
      "uing": 8759,
      "uity": 8760,
      "ubo": 8761,
      "uard": 8762,
      "uins": 8763,
      "uters": 8764,
      "uvi": 8765,
      "uese": 8766,
      "uise": 8767,
      "uism": 8768,
      "uah": 8769,
      "ucted": 8770,
      "uctors": 8771,
      "va": 8772,
      "vre": 8773,
      "vic": 8774,
      "vro": 8775,
      "vend": 8776,
      "vive": 8777,
      "vail": 8778,
      "vign": 8779,
      "vod": 8780,
      "vamp": 8781,
      "vali": 8782,
      "voy": 8783,
      "vanc": 8784,
      "vats": 8785,
      "vington": 8786,
      "vancy": 8787,
      "victor": 8788,
      "vador": 8789,
      "victs": 8790,
      "villi": 8791,
      "vette": 8792,
      "vators": 8793,
      "vapor": 8794,
      "wal": 8795,
      "wic": 8796,
      "wol": 8797,
      "ware": 8798,
      "wig": 8799,
      "wop": 8800,
      "woo": 8801,
      "wich": 8802,
      "wick": 8803,
      "wound": 8804,
      "wau": 8805,
      "wav": 8806,
      "wink": 8807,
      "wins": 8808,
      "wool": 8809,
      "wax": 8810,
      "wished": 8811,
      "watcher": 8812,
      "wels": 8813,
      "wicket": 8814,
      "wield": 8815,
      "waves": 8816,
      "woke": 8817,
      "wonders": 8818,
      "watts": 8819,
      "wilder": 8820,
      "xer": 8821,
      "xom": 8822,
      "xia": 8823,
      "xie": 8824,
      "xoxox": 8825,
      "yst": 8826,
      "ydid": 8827,
      "yte": 8828,
      "yak": 8829,
      "yos": 8830,
      "yell": 8831,
      "yog": 8832,
      "yss": 8833,
      "yline": 8834,
      "yll": 8835,
      "yron": 8836,
      "yield": 8837,
      "yahoo": 8838,
      "ypse": 8839,
      "ypso": 8840,
      "yrs": 8841,
      "zer": 8842,
      "zes": 8843,
      "zit": 8844,
      "zoo": 8845,
      "zum": 8846,
      "zers": 8847,
      "zone": 8848,
      "zant": 8849,
      "zoll": 8850,
      "zool": 8851,
      "zug": 8852,
      "zburg": 8853,
      "zuel": 8854,
      "zky": 8855,
      "zza": 8856,
      "zinc": 8857,
      "zalco": 8858,
      "zette": 8859,
      "zano": 8860,
      "hees": 8861,
      "heit": 8862,
      "heir": 8863,
      "heur": 8864,
      "hebe": 8865,
      "heim": 8866,
      "heme": 8867,
      "height": 8868,
      "heles": 8869,
      "hered": 8870,
      "hept": 8871,
      "heating": 8872,
      "herent": 8873,
      "healer": 8874,
      "hecies": 8875,
      "hepcats": 8876,
      "atl": 8877,
      "aty": 8878,
      "atin": 8879,
      "atre": 8880,
      "aton": 8881,
      "atal": 8882,
      "atel": 8883,
      "atmo": 8884,
      "atoo": 8885,
      "atoc": 8886,
      "ativ": 8887,
      "atty": 8888,
      "atog": 8889,
      "atio": 8890,
      "atics": 8891,
      "atton": 8892,
      "atfield": 8893,
      "atches": 8894,
      "atized": 8895,
      "atology": 8896,
      "atoes": 8897,
      "atka": 8898,
      "atoma": 8899,
      "atlas": 8900,
      "atoid": 8901,
      "atrical": 8902,
      "atubo": 8903,
      "Whist": 8904,
      "Whip": 8905,
      "Wharton": 8906,
      "thee": 8907,
      "theid": 8908,
      "theart": 8909,
      "theore": 8910,
      "thenia": 8911,
      "theories": 8912,
      "thesis": 8913,
      "thetic": 8914,
      "thefts": 8915,
      "theatrical": 8916,
      "ining": 8917,
      "inse": 8918,
      "inver": 8919,
      "infr": 8920,
      "iners": 8921,
      "inine": 8922,
      "inos": 8923,
      "inco": 8924,
      "inant": 8925,
      "inaw": 8926,
      "inous": 8927,
      "instate": 8928,
      "inates": 8929,
      "inox": 8930,
      "infin": 8931,
      "inets": 8932,
      "inoper": 8933,
      "inject": 8934,
      "inely": 8935,
      "intract": 8936,
      "infat": 8937,
      "indoor": 8938,
      "inologist": 8939,
      "investigation": 8940,
      "incompet": 8941,
      "inery": 8942,
      "intran": 8943,
      "inhabit": 8944,
      "incorporate": 8945,
      "inestone": 8946,
      "inciples": 8947,
      "anes": 8948,
      "anto": 8949,
      "anet": 8950,
      "anus": 8951,
      "anity": 8952,
      "ania": 8953,
      "anore": 8954,
      "anche": 8955,
      "annot": 8956,
      "anci": 8957,
      "anism": 8958,
      "anium": 8959,
      "anburg": 8960,
      "anopia": 8961,
      "anetics": 8962,
      "anthro": 8963,
      "isi": 8964,
      "isn": 8965,
      "isy": 8966,
      "isol": 8967,
      "isth": 8968,
      "isce": 8969,
      "isos": 8970,
      "isher": 8971,
      "isters": 8972,
      "isons": 8973,
      "isling": 8974,
      "isestablish": 8975,
      "eras": 8976,
      "erst": 8977,
      "erto": 8978,
      "erion": 8979,
      "erun": 8980,
      "erot": 8981,
      "erase": 8982,
      "erts": 8983,
      "erature": 8984,
      "eroy": 8985,
      "erable": 8986,
      "erlit": 8987,
      "ercare": 8988,
      "erbean": 8989,
      "erda": 8990,
      "erthal": 8991,
      "erbie": 8992,
      "ermaker": 8993,
      "ervation": 8994,
      "ermann": 8995,
      "erios": 8996,
      "erkat": 8997,
      "errill": 8998,
      "rea": 8999,
      "retr": 9000,
      "recom": 9001,
      "reich": 9002,
      "recoun": 9003,
      "reem": 9004,
      "revel": 9005,
      "reous": 9006,
      "recalled": 9007,
      "recre": 9008,
      "reform": 9009,
      "rechar": 9010,
      "remake": 9011,
      "rept": 9012,
      "recr": 9013,
      "recover": 9014,
      "repres": 9015,
      "remember": 9016,
      "reproduce": 9017,
      "regener": 9018,
      "refle": 9019,
      "remes": 9020,
      "returned": 9021,
      "rebell": 9022,
      "reaction": 9023,
      "resem": 9024,
      "reaches": 9025,
      "recycl": 9026,
      "repossession": 9027,
      "recharge": 9028,
      "rejection": 9029,
      "revival": 9030,
      "recapture": 9031,
      "rebounds": 9032,
      "recetr": 9033,
      "revive": 9034,
      "reinstate": 9035,
      "ona": 9036,
      "oni": 9037,
      "oner": 9038,
      "onion": 9039,
      "onel": 9040,
      "onde": 9041,
      "onix": 9042,
      "onics": 9043,
      "onents": 9044,
      "onica": 9045,
      "onize": 9046,
      "onose": 9047,
      "onado": 9048,
      "onomet": 9049,
      "onicles": 9050,
      "onograph": 9051,
      "ontos": 9052,
      "onville": 9053,
      "ontolog": 9054,
      "onetime": 9055,
      "onnesian": 9056,
      "oro": 9057,
      "orer": 9058,
      "oras": 9059,
      "orth": 9060,
      "orch": 9061,
      "orine": 9062,
      "orian": 9063,
      "orra": 9064,
      "ornam": 9065,
      "orial": 9066,
      "orhy": 9067,
      "orgin": 9068,
      "orized": 9069,
      "orius": 9070,
      "oramic": 9071,
      "orhees": 9072,
      "esto": 9073,
      "esman": 9074,
      "estr": 9075,
      "esian": 9076,
      "escap": 9077,
      "esaver": 9078,
      "esoph": 9079,
      "escope": 9080,
      "espion": 9081,
      "ara": 9082,
      "aru": 9083,
      "arter": 9084,
      "arab": 9085,
      "arers": 9086,
      "arly": 9087,
      "arri": 9088,
      "arine": 9089,
      "aria": 9090,
      "arith": 9091,
      "arome": 9092,
      "arous": 9093,
      "arson": 9094,
      "arche": 9095,
      "archer": 9096,
      "arboard": 9097,
      "arrest": 9098,
      "arily": 9099,
      "arrow": 9100,
      "arches": 9101,
      "arnet": 9102,
      "arms": 9103,
      "arsen": 9104,
      "arius": 9105,
      "artery": 9106,
      "aroid": 9107,
      "armac": 9108,
      "argon": 9109,
      "arisons": 9110,
      "ofen": 9111,
      "ofac": 9112,
      "asle": 9113,
      "asth": 9114,
      "asian": 9115,
      "ashen": 9116,
      "asley": 9117,
      "ashed": 9118,
      "asbourg": 9119,
      "asyll": 9120,
      "asthenia": 9121,
      "enas": 9122,
      "enig": 9123,
      "enli": 9124,
      "encoun": 9125,
      "enge": 9126,
      "enage": 9127,
      "enem": 9128,
      "enium": 9129,
      "enlist": 9130,
      "enza": 9131,
      "enroll": 9132,
      "enthal": 9133,
      "enclose": 9134,
      "enemy": 9135,
      "enforce": 9136,
      "enzie": 9137,
      "enetr": 9138,
      "enorm": 9139,
      "entolog": 9140,
      "endix": 9141,
      "alm": 9142,
      "aled": 9143,
      "alom": 9144,
      "alve": 9145,
      "alone": 9146,
      "alive": 9147,
      "alty": 9148,
      "altered": 9149,
      "alpine": 9150,
      "alcanal": 9151,
      "alifications": 9152,
      "algia": 9153,
      "edes": 9154,
      "eden": 9155,
      "edent": 9156,
      "edge": 9157,
      "edict": 9158,
      "edition": 9159,
      "edics": 9160,
      "ouk": 9161,
      "ouzo": 9162,
      "ouching": 9163,
      "ougou": 9164,
      "owe": 9165,
      "owser": 9166,
      "owatt": 9167,
      "owstick": 9168,
      "sten": 9169,
      "sted": 9170,
      "stic": 9171,
      "stom": 9172,
      "sting": 9173,
      "stol": 9174,
      "stay": 9175,
      "stim": 9176,
      "stard": 9177,
      "stake": 9178,
      "stated": 9179,
      "stood": 9180,
      "stice": 9181,
      "stical": 9182,
      "step": 9183,
      "stub": 9184,
      "stics": 9185,
      "stuck": 9186,
      "stoy": 9187,
      "stings": 9188,
      "stages": 9189,
      "stosis": 9190,
      "stique": 9191,
      "stories": 9192,
      "stores": 9193,
      "stinger": 9194,
      "stadium": 9195,
      "staged": 9196,
      "stove": 9197,
      "stalled": 9198,
      "stokes": 9199,
      "iti": 9200,
      "itis": 9201,
      "itet": 9202,
      "itoc": 9203,
      "item": 9204,
      "itics": 9205,
      "itations": 9206,
      "itrip": 9207,
      "itual": 9208,
      "itives": 9209,
      "itarian": 9210,
      "itania": 9211,
      "icus": 9212,
      "icot": 9213,
      "icill": 9214,
      "icure": 9215,
      "icans": 9216,
      "ications": 9217,
      "icator": 9218,
      "icah": 9219,
      "icyl": 9220,
      "icides": 9221,
      "icacy": 9222,
      "iches": 9223,
      "icultural": 9224,
      "amas": 9225,
      "amed": 9226,
      "amol": 9227,
      "amber": 9228,
      "amins": 9229,
      "amox": 9230,
      "amming": 9231,
      "amaret": 9232,
      "amended": 9233,
      "amples": 9234,
      "amatized": 9235,
      "amitrip": 9236,
      "lee": 9237,
      "leto": 9238,
      "leman": 9239,
      "lech": 9240,
      "lepro": 9241,
      "lement": 9242,
      "lemon": 9243,
      "levi": 9244,
      "lemur": 9245,
      "lepsy": 9246,
      "levit": 9247,
      "levard": 9248,
      "leaps": 9249,
      "leaky": 9250,
      "lefto": 9251,
      "leashed": 9252,
      "omis": 9253,
      "omer": 9254,
      "omon": 9255,
      "omed": 9256,
      "omper": 9257,
      "omial": 9258,
      "omites": 9259,
      "omwell": 9260,
      "dox": 9261,
      "dore": 9262,
      "dose": 9263,
      "dock": 9264,
      "doctors": 9265,
      "document": 9266,
      "doomed": 9267,
      "idic": 9268,
      "idle": 9269,
      "idation": 9270,
      "idence": 9271,
      "idance": 9272,
      "idna": 9273,
      "idization": 9274,
      "idges": 9275,
      "idiomy": 9276,
      "idisestablish": 9277,
      "idreich": 9278,
      "toot": 9279,
      "toast": 9280,
      "tober": 9281,
      "toge": 9282,
      "topop": 9283,
      "tock": 9284,
      "toSh": 9285,
      "tophy": 9286,
      "tobac": 9287,
      "tolu": 9288,
      "inge": 9289,
      "inged": 9290,
      "ingian": 9291,
      "ingale": 9292,
      "ingfield": 9293,
      "anda": 9294,
      "andal": 9295,
      "andard": 9296,
      "andise": 9297,
      "andler": 9298,
      "anderthal": 9299,
      "wasn": 9300,
      "waste": 9301,
      "wasps": 9302,
      "washed": 9303,
      "oli": 9304,
      "olition": 9305,
      "olina": 9306,
      "olives": 9307,
      "olini": 9308,
      "olifer": 9309,
      "acon": 9310,
      "acle": 9311,
      "acing": 9312,
      "acres": 9313,
      "acce": 9314,
      "acab": 9315,
      "acup": 9316,
      "acchar": 9317,
      "accompany": 9318,
      "accompan": 9319,
      "acquit": 9320,
      "accommo": 9321,
      "accept": 9322,
      "acocks": 9323,
      "acoust": 9324,
      "ils": 9325,
      "ilar": 9326,
      "iled": 9327,
      "ilus": 9328,
      "ilian": 9329,
      "ilting": 9330,
      "ilism": 9331,
      "ilah": 9332,
      "ilica": 9333,
      "ilize": 9334,
      "ilib": 9335,
      "ilocks": 9336,
      "illegally": 9337,
      "thm": 9338,
      "ths": 9339,
      "thin": 9340,
      "thag": 9341,
      "thine": 9342,
      "thigh": 9343,
      "thick": 9344,
      "thous": 9345,
      "thren": 9346,
      "thook": 9347,
      "threat": 9348,
      "thiest": 9349,
      "thumb": 9350,
      "thoscope": 9351,
      "thnos": 9352,
      "thofen": 9353,
      "enta": 9354,
      "enty": 9355,
      "ental": 9356,
      "enters": 9357,
      "ential": 9358,
      "entail": 9359,
      "entimes": 9360,
      "entries": 9361,
      "forfe": 9362,
      "fords": 9363,
      "forged": 9364,
      "forerun": 9365,
      "ionage": 9366,
      "arel": 9367,
      "arest": 9368,
      "etat": 9369,
      "etse": 9370,
      "eters": 9371,
      "etian": 9372,
      "etah": 9373,
      "etched": 9374,
      "etzalco": 9375,
      "elk": 9376,
      "elig": 9377,
      "elve": 9378,
      "elim": 9379,
      "elong": 9380,
      "elia": 9381,
      "elight": 9382,
      "elhol": 9383,
      "elux": 9384,
      "ellip": 9385,
      "elisk": 9386,
      "elitis": 9387,
      "irin": 9388,
      "iris": 9389,
      "irer": 9390,
      "irop": 9391,
      "irts": 9392,
      "irred": 9393,
      "irator": 9394,
      "irized": 9395,
      "iricah": 9396,
      "manac": 9397,
      "manate": 9398,
      "mania": 9399,
      "manif": 9400,
      "mankind": 9401,
      "managing": 9402,
      "manicure": 9403,
      "adt": 9404,
      "aded": 9405,
      "adic": 9406,
      "ading": 9407,
      "adim": 9408,
      "adul": 9409,
      "aders": 9410,
      "adne": 9411,
      "admon": 9412,
      "advent": 9413,
      "adise": 9414,
      "adjour": 9415,
      "advoc": 9416,
      "adapter": 9417,
      "adjac": 9418,
      "advant": 9419,
      "adette": 9420,
      "adiator": 9421,
      "adorns": 9422,
      "adjoining": 9423,
      "advanc": 9424,
      "adalcanal": 9425,
      "adougou": 9426,
      "roat": 9427,
      "roid": 9428,
      "ropo": 9429,
      "rogen": 9430,
      "roost": 9431,
      "roasts": 9432,
      "rograd": 9433,
      "roots": 9434,
      "roaches": 9435,
      "robin": 9436,
      "robust": 9437,
      "roses": 9438,
      "ropolis": 9439,
      "robbers": 9440,
      "rotolu": 9441,
      "amein": 9442,
      "ameza": 9443,
      "chin": 9444,
      "chre": 9445,
      "chur": 9446,
      "chop": 9447,
      "chos": 9448,
      "chie": 9449,
      "chance": 9450,
      "china": 9451,
      "choose": 9452,
      "chops": 9453,
      "chino": 9454,
      "chwan": 9455,
      "chunnel": 9456,
      "changes": 9457,
      "chih": 9458,
      "challeng": 9459,
      "channel": 9460,
      "chatka": 9461,
      "chandise": 9462,
      "chirop": 9463,
      "chadne": 9464,
      "igen": 9465,
      "igno": 9466,
      "igator": 9467,
      "igram": 9468,
      "igua": 9469,
      "igata": 9470,
      "igsberg": 9471,
      "Wheel": 9472,
      "Wheels": 9473,
      "Wheatfield": 9474,
      "terab": 9475,
      "teries": 9476,
      "terey": 9477,
      "terrier": 9478,
      "terata": 9479,
      "terLata": 9480,
      "ayon": 9481,
      "aying": 9482,
      "ayola": 9483,
      "allo": 9484,
      "allic": 9485,
      "allone": 9486,
      "allian": 9487,
      "alloy": 9488,
      "allenge": 9489,
      "didn": 9490,
      "seal": 9491,
      "seaw": 9492,
      "seau": 9493,
      "secur": 9494,
      "sebor": 9495,
      "semb": 9496,
      "seats": 9497,
      "seize": 9498,
      "semic": 9499,
      "sewer": 9500,
      "sequen": 9501,
      "seccess": 9502,
      "doesn": 9503,
      "tral": 9504,
      "trap": 9505,
      "trul": 9506,
      "trace": 9507,
      "trail": 9508,
      "true": 9509,
      "trition": 9510,
      "tramp": 9511,
      "truck": 9512,
      "trib": 9513,
      "tricts": 9514,
      "tructor": 9515,
      "trinit": 9516,
      "trillion": 9517,
      "vek": 9518,
      "veal": 9519,
      "veop": 9520,
      "estim": 9521,
      "estley": 9522,
      "estuary": 9523,
      "urb": 9524,
      "uras": 9525,
      "urion": 9526,
      "urity": 9527,
      "urers": 9528,
      "uries": 9529,
      "urian": 9530,
      "urary": 9531,
      "uroman": 9532,
      "urged": 9533,
      "urrection": 9534,
      "urologist": 9535,
      "uribus": 9536,
      "comot": 9537,
      "comment": 9538,
      "comedy": 9539,
      "comfort": 9540,
      "combust": 9541,
      "bey": 9542,
      "beal": 9543,
      "beers": 9544,
      "beha": 9545,
      "beats": 9546,
      "beating": 9547,
      "beef": 9548,
      "behold": 9549,
      "becomes": 9550,
      "befell": 9551,
      "beaches": 9552,
      "beethoven": 9553,
      "ima": 9554,
      "imen": 9555,
      "imace": 9556,
      "imming": 9557,
      "imstone": 9558,
      "immig": 9559,
      "impossible": 9560,
      "immort": 9561,
      "imedia": 9562,
      "imlich": 9563,
      "immune": 9564,
      "imisce": 9565,
[...]
